<unk>	0
<s>	2
</s>	1
▁t	-0
▁a	-1
er	-2
es	-3
en	-4
▁d	-5
▁s	-6
▁c	-7
▁l	-8
▁m	-9
in	-10
▁p	-11
ar	-12
▁h	-13
on	-14
an	-15
as	-16
om	-17
or	-18
▁th	-19
os	-20
ou	-21
▁T	-22
is	-23
▁w	-24
re	-25
▁n	-26
▁b	-27
el	-28
qu	-29
▁I	-30
▁es	-31
▁f	-32
at	-33
ed	-34
▁de	-35
▁to	-36
▁y	-37
ad	-38
un	-39
▁qu	-40
▁the	-41
it	-42
▁Tom	-43
▁�	-44
al	-45
▁"	-46
ing	-47
▁g	-48
ent	-49
▁o	-50
▁you	-51
id	-52
▁que	-53
▁v	-54
▁un	-55
▁E	-56
▁no	-57
ic	-58
▁ha	-59
."	-60
▁la	-61
le	-62
▁en	-63
he	-64
us	-65
▁in	-66
ta	-67
ll	-68
▁M	-69
▁is	-70
ro	-71
ve	-72
▁el	-73
am	-74
im	-75
▁me	-76
▁e	-77
▁an	-78
▁se	-79
ci	-80
to	-81
ch	-82
▁S	-83
ra	-84
▁H	-85
do	-86
te	-87
▁con	-88
▁of	-89
ay	-90
▁N	-91
ir	-92
ol	-93
ien	-94
et	-95
ig	-96
▁W	-97
▁re	-98
▁L	-99
▁al	-100
▁lo	-101
▁est	-102
ere	-103
▁be	-104
▁com	-105
▁su	-106
ow	-107
▁The	-108
▁r	-109
▁A	-110
ab	-111
▁Es	-112
ado	-113
▁do	-114
▁No	-115
ver	-116
▁li	-117
em	-118
ld	-119
ke	-120
▁D	-121
▁Y	-122
▁par	-123
▁mu	-124
ant	-125
ce	-126
th	-127
▁on	-128
▁that	-129
▁le	-130
od	-131
▁for	-132
ier	-133
▁was	-134
ter	-135
▁Mar	-136
▁go	-137
▁wh	-138
▁he	-139
▁una	-140
▁He	-141
▁it	-142
ur	-143
▁ne	-144
ill	-145
il	-146
tr	-147
▁Mary	-148
ente	-149
▁C	-150
▁and	-151
▁k	-152
▁Th	-153
▁pu	-154
▁have	-155
▁por	-156
▁los	-157
▁per	-158
ue	-159
ion	-160
go	-161
▁Wh	-162
▁j	-163
▁P	-164
▁di	-165
▁as	-166
ul	-167
▁fr	-168
ith	-169
ly	-170
est	-171
▁can	-172
ut	-173
▁ab	-174
▁tr	-175
ud	-176
▁my	-177
oc	-178
ec	-179
ando	-180
▁You	-181
▁are	-182
la	-183
▁las	-184
▁with	-185
ba	-186
ht	-187
out	-188
ust	-189
▁El	-190
▁ver	-191
▁not	-192
ok	-193
ould	-194
▁cu	-195
▁st	-196
▁hab	-197
▁ex	-198
Qu	-199
▁mi	-200
se	-201
ido	-202
▁at	-203
lo	-204
▁te	-205
▁don	-206
▁your	-207
▁so	-208
▁pro	-209
▁her	-210
▁pr	-211
▁kn	-212
ap	-213
▁para	-214
▁want	-215
▁ac	-216
gu	-217
and	-218
io	-219
ia	-220
▁his	-221
ada	-222
end	-223
▁It	-224
▁ch	-225
▁this	-226
▁esta	-227
▁am	-228
▁has	-229
pe	-230
ri	-231
ac	-232
▁She	-233
▁know	-234
▁sh	-235
jo	-236
ie	-237
▁We	-238
up	-239
▁La	-240
�.	-241
▁des	-242
▁like	-243
ome	-244
▁Ell	-245
pr	-246
▁much	-247
de	-248
one	-249
▁car	-250
ell	-251
um	-252
av	-253
iv	-254
▁ten	-255
st	-256
▁del	-257
▁we	-258
era	-259
▁pued	-260
if	-261
▁tien	-262
oy	-263
▁wor	-264
▁did	-265
ight	-266
▁B	-267
▁Me	-268
▁cas	-269
ble	-270
▁us	-271
▁man	-272
ca	-273
ak	-274
iz	-275
ag	-276
▁pl	-277
▁ar	-278
▁him	-279
cer	-280
emp	-281
▁tra	-282
ore	-283
ero	-284
▁pre	-285
▁si	-286
bre	-287
pp	-288
all	-289
ist	-290
ink	-291
▁J	-292
▁tu	-293
▁Ella	-294
▁all	-295
ess	-296
mo	-297
▁ti	-298
ate	-299
ame	-300
▁tod	-301
ber	-302
ost	-303
ot	-304
ther	-305
ort	-306
▁son	-307
▁F	-308
aci	-309
ana	-310
▁pas	-311
▁What	-312
?"	-313
ake	-314
ish	-315
oun	-316
amos	-317
▁esc	-318
ime	-319
ple	-320
▁will	-321
ice	-322
▁ser	-323
▁what	-324
ive	-325
▁bu	-326
▁mis	-327
▁im	-328
ez	-329
ct	-330
per	-331
▁any	-332
▁Do	-333
▁res	-334
ug	-335
oug	-336
▁or	-337
▁muy	-338
▁hacer	-339
toy	-340
ard	-341
▁ro	-342
ora	-343
ase	-344
▁This	-345
▁tiene	-346
der	-347
very	-348
▁ent	-349
ong	-350
▁up	-351
▁gr	-352
▁G	-353
▁very	-354
ida	-355
ante	-356
our	-357
thing	-358
▁from	-359
▁pe	-360
▁time	-361
gun	-362
▁think	-363
▁sol	-364
▁They	-365
ces	-366
▁cl	-367
▁about	-368
▁bo	-369
▁out	-370
▁had	-371
co	-372
ica	-373
▁como	-374
▁sab	-375
ens	-376
cho	-377
ento	-378
▁get	-379
▁does	-380
emos	-381
idad	-382
ind	-383
ide	-384
me	-385
▁but	-386
ation	-387
ven	-388
▁sa	-389
br	-390
iero	-391
ga	-392
▁one	-393
▁cam	-394
▁V	-395
▁co	-396
ath	-397
ico	-398
▁""	-399
Cu	-400
uer	-401
oso	-402
▁tan	-403
ays	-404
▁sal	-405
ge	-406
""	-407
▁lle	-408
▁My	-409
▁fue	-410
que	-411
▁real	-412
cia	-413
▁U	-414
▁by	-415
▁aqu	-416
ano	-417
▁ll	-418
ry	-419
▁here	-420
pa	-421
▁fav	-422
ave	-423
mente	-424
ach	-425
uel	-426
▁didn	-427
par	-428
ma	-429
fer	-430
▁casa	-431
Por	-432
▁favor	-433
▁ir	-434
▁traba	-435
ep	-436
▁ad	-437
▁gus	-438
▁imp	-439
▁O	-440
▁need	-441
▁than	-442
ies	-443
▁habl	-444
▁mo	-445
▁there	-446
▁going	-447
No	-448
▁were	-449
▁cre	-450
ear	-451
▁she	-452
▁cont	-453
▁ni	-454
▁En	-455
▁enc	-456
alk	-457
▁work	-458
▁Mi	-459
▁dis	-460
▁estaba	-461
iendo	-462
son	-463
vo	-464
ast	-465
▁Los	-466
▁good	-467
ine	-468
▁would	-469
▁mad	-470
▁ay	-471
ite	-472
▁gusta	-473
ous	-474
ren	-475
▁There	-476
▁every	-477
▁hel	-478
igo	-479
res	-480
ect	-481
iend	-482
▁look	-483
▁tiemp	-484
able	-485
▁see	-486
▁tom	-487
ones	-488
▁R	-489
▁eso	-490
▁sin	-491
orm	-492
▁spe	-493
▁more	-494
▁Qu	-495
ck	-496
▁pero	-497
▁af	-498
▁em	-499
▁tiempo	-500
ito	-501
▁How	-502
▁That	-503
ina	-504
▁Ten	-505
ree	-506
▁Yo	-507
▁todo	-508
fe	-509
ici	-510
▁Don	-511
▁este	-512
▁person	-513
eth	-514
▁sus	-515
▁bien	-516
▁pod	-517
ja	-518
▁som	-519
▁mar	-520
bi	-521
▁fe	-522
mas	-523
mos	-524
ought	-525
▁buen	-526
▁po	-527
▁ca	-528
▁ma	-529
pu	-530
▁doesn	-531
▁some	-532
▁vez	-533
▁vis	-534
ound	-535
▁mucho	-536
▁ra	-537
▁happ	-538
ose	-539
▁Un	-540
aba	-541
▁Est	-542
▁when	-543
▁should	-544
ados	-545
row	-546
ack	-547
▁been	-548
▁proble	-549
ult	-550
▁nada	-551
ese	-552
▁come	-553
aron	-554
ople	-555
▁Esta	-556
▁Estoy	-557
▁De	-558
▁eat	-559
▁just	-560
▁who	-561
▁qui	-562
▁algo	-563
▁could	-564
▁sent	-565
▁pa	-566
ued	-567
ity	-568
ans	-569
pt	-570
▁inter	-571
▁help	-572
▁Se	-573
cid	-574
lease	-575
▁book	-576
▁hay	-577
▁bus	-578
ather	-579
amente	-580
▁speak	-581
jar	-582
sel	-583
▁puede	-584
▁din	-585
▁cor	-586
▁era	-587
▁too	-588
▁never	-589
ato	-590
eces	-591
ild	-592
unca	-593
▁puedo	-594
pl	-595
iera	-596
ure	-597
▁ella	-598
▁play	-599
▁dif	-600
ich	-601
day	-602
ater	-603
▁col	-604
▁tw	-605
iste	-606
ves	-607
za	-608
▁cuando	-609
jor	-610
tros	-611
ual	-612
▁yo	-613
▁they	-614
▁men	-615
ombre	-616
▁ah	-617
▁"�	-618
nde	-619
▁compr	-620
gl	-621
▁if	-622
▁ayud	-623
▁people	-624
ick	-625
art	-626
▁cons	-627
▁friend	-628
Es	-629
dad	-630
▁got	-631
cir	-632
ty	-633
▁now	-634
ara	-635
▁dos	-636
▁dr	-637
itt	-638
▁year	-639
▁op	-640
use	-641
▁sp	-642
etter	-643
ers	-644
empre	-645
▁qued	-646
bl	-647
▁fo	-648
tes	-649
ang	-650
▁talk	-651
anc	-652
▁mejor	-653
int	-654
▁last	-655
▁read	-656
▁day	-657
ino	-658
ning	-659
▁er	-660
▁int	-661
ras	-662
uest	-663
▁say	-664
▁fin	-665
▁Why	-666
▁new	-667
▁ap	-668
▁home	-669
red	-670
▁nue	-671
▁gust	-672
▁them	-673
▁pad	-674
▁pol	-675
▁love	-676
▁tell	-677
▁how	-678
▁Lo	-679
▁stud	-680
▁ask	-681
▁Is	-682
▁said	-683
▁Le	-684
▁pel	-685
▁Can	-686
▁jo	-687
▁wr	-688
je	-689
▁plan	-690
tra	-691
▁gu	-692
▁fu	-693
▁mal	-694
bro	-695
▁todos	-696
oney	-697
be	-698
▁fl	-699
▁won	-700
che	-701
▁poc	-702
osa	-703
▁off	-704
▁ter	-705
▁tar	-706
▁hi	-707
self	-708
▁long	-709
▁tengo	-710
▁only	-711
▁under	-712
ouse	-713
▁herm	-714
▁hablar	-715
▁our	-716
▁cr	-717
ways	-718
urn	-719
▁comp	-720
ough	-721
▁back	-722
ething	-723
▁estar	-724
▁cal	-725
▁Tengo	-726
▁lot	-727
Si	-728
▁take	-729
ved	-730
▁1	-731
▁neces	-732
▁inv	-733
▁trabajo	-734
ores	-735
▁always	-736
ond	-737
▁K	-738
▁mon	-739
▁rec	-740
enta	-741
age	-742
▁bel	-743
gar	-744
▁coc	-745
cil	-746
▁br	-747
▁call	-748
prend	-749
If	-750
gr	-751
▁llam	-752
▁pregun	-753
▁mat	-754
▁sm	-755
ible	-756
▁cer	-757
▁money	-758
▁may	-759
▁dinero	-760
ign	-761
▁dijo	-762
ip	-763
▁Tod	-764
jos	-765
▁oc	-766
▁esto	-767
▁Ch	-768
▁estoy	-769
▁estud	-770
▁old	-771
jer	-772
▁something	-773
▁fam	-774
▁many	-775
▁vol	-776
uch	-777
nt	-778
▁vida	-779
ios	-780
oston	-781
▁tel	-782
ence	-783
▁house	-784
▁Boston	-785
va	-786
▁really	-787
▁thing	-788
▁make	-789
ents	-790
adie	-791
▁Jap	-792
▁viv	-793
ontr	-794
ody	-795
du	-796
cul	-797
▁Al	-798
ely	-799
▁quiero	-800
▁two	-801
ass	-802
▁nos	-803
▁libro	-804
▁other	-805
▁must	-806
▁bro	-807
▁ide	-808
▁Este	-809
▁right	-810
usted	-811
▁Are	-812
Tom	-813
▁child	-814
▁bl	-815
▁isn	-816
ied	-817
imos	-818
▁med	-819
no	-820
ile	-821
arn	-822
ita	-823
▁Quiero	-824
▁esper	-825
vi	-826
▁hace	-827
ima	-828
▁va	-829
▁ba	-830
▁sobre	-831
▁Su	-832
Wh	-833
▁quer	-834
iado	-835
▁decir	-836
ft	-837
encia	-838
gua	-839
▁ci	-840
ance	-841
ary	-842
bo	-843
gain	-844
▁verdad	-845
▁solo	-846
▁Te	-847
▁ing	-848
ieron	-849
so	-850
ict	-851
▁reg	-852
▁esp	-853
▁went	-854
da	-855
ura	-856
▁ke	-857
▁again	-858
▁haber	-859
ated	-860
▁ve	-861
▁import	-862
▁anything	-863
▁poco	-864
arme	-865
ece	-866
▁sta	-867
▁made	-868
▁told	-869
▁sto	-870
ten	-871
▁usted	-872
▁fir	-873
▁well	-874
undo	-875
▁Let	-876
▁over	-877
▁deber	-878
orrow	-879
▁Las	-880
▁min	-881
▁pres	-882
▁demas	-883
▁siempre	-884
�?	-885
▁encontr	-886
▁exp	-887
ne	-888
atch	-889
▁estudi	-890
▁cap	-891
▁ho	-892
car	-893
▁room	-894
reo	-895
▁fel	-896
▁mor	-897
oh	-898
body	-899
▁into	-900
▁Where	-901
▁hombre	-902
!"	-903
chool	-904
rench	-905
cion	-906
ian	-907
uto	-908
ario	-909
ying	-910
fore	-911
▁still	-912
▁life	-913
▁grand	-914
own	-915
▁French	-916
aste	-917
mer	-918
▁Engl	-919
wn	-920
ales	-921
entes	-922
▁feel	-923
▁today	-924
irl	-925
ise	-926
▁dog	-927
▁Please	-928
▁their	-929
▁famil	-930
▁mundo	-931
▁pal	-932
▁after	-933
read	-934
les	-935
▁school	-936
ena	-937
ire	-938
▁sw	-939
man	-940
ohn	-941
▁antes	-942
▁inc	-943
izo	-944
▁dur	-945
oss	-946
▁ob	-947
▁resp	-948
ieres	-949
▁lan	-950
▁demasiado	-951
▁quiere	-952
▁ahora	-953
."""	-954
▁ins	-955
▁tres	-956
olo	-957
▁Who	-958
▁better	-959
▁John	-960
osotros	-961
ait	-962
ord	-963
▁cab	-964
▁prof	-965
tor	-966
itar	-967
▁prim	-968
▁nunca	-969
▁three	-970
▁thought	-971
▁night	-972
▁fa	-973
fr	-974
ugar	-975
▁padre	-976
Pued	-977
ub	-978
ieve	-979
▁aw	-980
▁segu	-981
osas	-982
▁ven	-983
elo	-984
▁algun	-985
▁franc	-986
vis	-987
ittle	-988
▁ya	-989
▁before	-990
▁years	-991
▁father	-992
▁way	-993
▁girl	-994
▁live	-995
iver	-996
▁inf	-997
endo	-998
min	-999
vid	-1000
arse	-1001
▁happen	-1002
iento	-1003
▁part	-1004
ving	-1005
▁first	-1006
▁An	-1007
▁little	-1008
▁gente	-1009
▁English	-1010
▁fun	-1011
▁hor	-1012
▁Hay	-1013
En	-1014
▁pens	-1015
▁sabe	-1016
▁left	-1017
▁tarde	-1018
po	-1019
▁teach	-1020
ctor	-1021
▁Ellos	-1022
▁langu	-1023
▁Creo	-1024
▁down	-1025
▁idea	-1026
leep	-1027
▁gre	-1028
The	-1029
ador	-1030
stand	-1031
▁sec	-1032
az	-1033
▁conf	-1034
iene	-1035
ger	-1036
▁str	-1037
▁noche	-1038
Qui	-1039
ful	-1040
uro	-1041
▁nuest	-1042
▁hum	-1043
ester	-1044
idi	-1045
▁hizo	-1046
xt	-1047
▁ese	-1048
▁dar	-1049
▁comer	-1050
▁coun	-1051
▁Did	-1052
▁tomorrow	-1053
▁ingl	-1054
▁where	-1055
▁hand	-1056
▁aprend	-1057
�,	-1058
▁dec	-1059
▁acc	-1060
▁amig	-1061
▁understand	-1062
ienes	-1063
▁fuer	-1064
00	-1065
▁accid	-1066
fic	-1067
▁perd	-1068
▁soy	-1069
unt	-1070
▁mes	-1071
▁2	-1072
guien	-1073
Est	-1074
▁wait	-1075
▁In	-1076
uela	-1077
▁beca	-1078
▁mismo	-1079
▁dej	-1080
▁boy	-1081
▁because	-1082
▁da	-1083
▁rem	-1084
▁start	-1085
▁put	-1086
ib	-1087
▁ear	-1088
ek	-1089
▁nuevo	-1090
ons	-1091
▁find	-1092
ndo	-1093
Te	-1094
▁came	-1095
esterday	-1096
vel	-1097
▁har	-1098
▁Japan	-1099
ank	-1100
ried	-1101
▁saw	-1102
▁hecho	-1103
▁world	-1104
▁mom	-1105
ment	-1106
lt	-1107
▁problem	-1108
▁win	-1109
und	-1110
▁Soy	-1111
▁perro	-1112
ew	-1113
▁buy	-1114
▁lik	-1115
▁mujer	-1116
▁hot	-1117
▁Par	-1118
▁friends	-1119
ions	-1120
De	-1121
zo	-1122
los	-1123
▁hoy	-1124
▁llev	-1125
▁hasta	-1126
esta	-1127
ital	-1128
▁give	-1129
▁hard	-1130
arte	-1131
udad	-1132
▁act	-1133
gan	-1134
Me	-1135
▁ed	-1136
▁nothing	-1137
▁wanted	-1138
tro	-1139
ista	-1140
▁lar	-1141
ann	-1142
▁bar	-1143
▁coche	-1144
▁tam	-1145
▁ph	-1146
▁ol	-1147
▁bor	-1148
aut	-1149
igh	-1150
▁escri	-1151
▁hora	-1152
▁mother	-1153
▁pes	-1154
▁ciudad	-1155
▁learn	-1156
▁libr	-1157
▁drink	-1158
▁Every	-1159
ds	-1160
▁stay	-1161
▁habit	-1162
▁desc	-1163
▁asked	-1164
▁everything	-1165
▁conoc	-1166
▁lun	-1167
enci	-1168
▁esa	-1169
bol	-1170
▁equ	-1171
▁pla	-1172
▁Have	-1173
▁gustar	-1174
▁Eso	-1175
▁cosas	-1176
▁without	-1177
igu	-1178
▁app	-1179
▁cat	-1180
▁gan	-1181
▁rain	-1182
▁prop	-1183
▁let	-1184
antes	-1185
almente	-1186
▁seem	-1187
▁sit	-1188
▁palab	-1189
▁job	-1190
▁porque	-1191
▁madre	-1192
erta	-1193
▁uno	-1194
▁turn	-1195
▁water	-1196
idos	-1197
▁ever	-1198
▁His	-1199
▁sem	-1200
▁week	-1201
ready	-1202
▁care	-1203
tas	-1204
ange	-1205
ced	-1206
▁already	-1207
ife	-1208
▁children	-1209
▁bre	-1210
▁sleep	-1211
▁auto	-1212
▁beaut	-1213
▁watch	-1214
In	-1215
▁che	-1216
▁tem	-1217
▁voy	-1218
▁menos	-1219
▁podr	-1220
den	-1221
▁yesterday	-1222
ys	-1223
▁nadie	-1224
▁agua	-1225
▁sor	-1226
▁entre	-1227
▁name	-1228
El	-1229
▁happy	-1230
orta	-1231
uc	-1232
▁leave	-1233
▁sur	-1234
▁sea	-1235
▁use	-1236
▁used	-1237
▁Ya	-1238
cept	-1239
anto	-1240
ting	-1241
▁sho	-1242
▁brother	-1243
ustr	-1244
▁anim	-1245
..	-1246
akes	-1247
▁estado	-1248
ues	-1249
▁otra	-1250
ical	-1251
▁doing	-1252
▁doctor	-1253
▁took	-1254
▁gran	-1255
▁lost	-1256
ivo	-1257
atos	-1258
▁Si	-1259
▁deb	-1260
▁alm	-1261
▁dorm	-1262
▁wants	-1263
▁away	-1264
rec	-1265
anni	-1266
ister	-1267
▁decid	-1268
▁believe	-1269
▁nat	-1270
erte	-1271
▁lleg	-1272
▁visit	-1273
▁rep	-1274
▁problema	-1275
uso	-1276
ono	-1277
▁even	-1278
You	-1279
▁please	-1280
▁next	-1281
▁things	-1282
▁Pued	-1283
▁z	-1284
▁Todos	-1285
ars	-1286
ng	-1287
▁pron	-1288
▁Yanni	-1289
▁amigos	-1290
tain	-1291
▁exam	-1292
▁wom	-1293
imes	-1294
wer	-1295
▁meet	-1296
▁countr	-1297
▁bad	-1298
▁walk	-1299
▁Neces	-1300
▁lu	-1301
▁door	-1302
▁pos	-1303
▁vi	-1304
▁trans	-1305
▁best	-1306
▁puedes	-1307
ph	-1308
▁gl	-1309
▁big	-1310
▁veces	-1311
iful	-1312
▁bought	-1313
raci	-1314
med	-1315
▁Nunca	-1316
pi	-1317
▁abs	-1318
uv	-1319
▁To	-1320
▁tele	-1321
▁vuel	-1322
ates	-1323
▁soon	-1324
▁tienes	-1325
▁gave	-1326
aking	-1327
▁beautiful	-1328
▁escuela	-1329
▁ta	-1330
▁open	-1331
▁sure	-1332
▁personas	-1333
til	-1334
ugh	-1335
�."	-1336
▁parece	-1337
ock	-1338
adas	-1339
▁being	-1340
▁vas	-1341
▁histor	-1342
ret	-1343
▁fal	-1344
▁prom	-1345
▁amigo	-1346
▁morning	-1347
▁profes	-1348
ender	-1349
▁mayor	-1350
▁show	-1351
▁language	-1352
pres	-1353
▁bed	-1354
▁same	-1355
▁pasado	-1356
▁hacerlo	-1357
illa	-1358
ember	-1359
zar	-1360
When	-1361
leg	-1362
ient	-1363
▁mil	-1364
▁found	-1365
▁tus	-1366
▁arri	-1367
imo	-1368
▁otro	-1369
▁comple	-1370
▁list	-1371
▁ans	-1372
ular	-1373
▁vac	-1374
icos	-1375
tras	-1376
▁mus	-1377
▁why	-1378
▁semana	-1379
▁Com	-1380
▁suf	-1381
alia	-1382
▁fuera	-1383
▁ning	-1384
▁minut	-1385
▁tambi	-1386
▁termin	-1387
▁met	-1388
na	-1389
▁eas	-1390
unto	-1391
▁ag	-1392
▁sing	-1393
▁quieres	-1394
▁buena	-1395
▁habitaci	-1396
Th	-1397
▁pap	-1398
▁most	-1399
▁Esto	-1400
▁hour	-1401
▁teacher	-1402
ory	-1403
▁sc	-1404
▁desde	-1405
▁hur	-1406
ban	-1407
▁dri	-1408
ener	-1409
▁cle	-1410
▁puerta	-1411
He	-1412
▁tre	-1413
▁couldn	-1414
▁les	-1415
▁own	-1416
▁dic	-1417
▁tener	-1418
▁tienen	-1419
▁mir	-1420
▁comprar	-1421
▁enfer	-1422
▁persona	-1423
uth	-1424
▁When	-1425
▁quest	-1426
▁Your	-1427
act	-1428
ream	-1429
▁jue	-1430
▁great	-1431
▁err	-1432
▁lugar	-1433
▁saber	-1434
tamente	-1435
edo	-1436
▁Fr	-1437
pido	-1438
ork	-1439
endr	-1440
ace	-1441
▁empe	-1442
La	-1443
mit	-1444
▁ey	-1445
▁late	-1446
▁desp	-1447
▁alguien	-1448
▁hermano	-1449
▁done	-1450
▁tanto	-1451
▁pi	-1452
uerdo	-1453
▁pat	-1454
▁hear	-1455
▁sister	-1456
▁bec	-1457
▁peque	-1458
▁nosotros	-1459
any	-1460
ific	-1461
▁art	-1462
▁val	-1463
▁escuch	-1464
Al	-1465
ally	-1466
anos	-1467
gas	-1468
▁sim	-1469
▁Deber	-1470
▁cin	-1471
▁len	-1472
▁disc	-1473
▁expl	-1474
ciendo	-1475
▁remember	-1476
▁despu	-1477
▁nombre	-1478
▁entr	-1479
▁knows	-1480
alo	-1481
jas	-1482
▁apar	-1483
▁pass	-1484
nto	-1485
ortun	-1486
▁olvid	-1487
ias	-1488
▁wasn	-1489
▁vie	-1490
▁able	-1491
▁kill	-1492
ner	-1493
get	-1494
anta	-1495
▁bir	-1496
▁dejar	-1497
lla	-1498
▁keep	-1499
▁wrong	-1500
��	-1501
illo	-1502
▁likes	-1503
udo	-1504
▁hope	-1505
not	-1506
are	-1507
▁eres	-1508
other	-1509
irt	-1510
▁exper	-1511
▁enough	-1512
▁muchos	-1513
▁run	-1514
▁stop	-1515
▁Austr	-1516
▁country	-1517
sica	-1518
▁pien	-1519
▁often	-1520
▁looking	-1521
▁dice	-1522
aciones	-1523
▁intent	-1524
▁dio	-1525
▁ayer	-1526
▁Hab	-1527
▁ocup	-1528
▁dist	-1529
▁kind	-1530
▁letter	-1531
▁All	-1532
lar	-1533
icas	-1534
▁train	-1535
gry	-1536
▁habla	-1537
ami	-1538
▁cuenta	-1539
bir	-1540
▁caf	-1541
isa	-1542
▁alone	-1543
▁cold	-1544
▁far	-1545
▁sign	-1546
▁dem	-1547
▁feliz	-1548
▁cannot	-1549
▁seen	-1550
Cuando	-1551
▁todas	-1552
▁yet	-1553
▁ellos	-1554
▁cambi	-1555
▁answer	-1556
iss	-1557
▁durante	-1558
▁Nos	-1559
▁ton	-1560
▁seguro	-1561
▁sk	-1562
▁hom	-1563
ished	-1564
▁univer	-1565
▁mov	-1566
▁ped	-1567
▁visto	-1568
yo	-1569
▁ev	-1570
▁pregunt	-1571
oma	-1572
▁han	-1573
▁via	-1574
▁these	-1575
▁true	-1576
▁around	-1577
rit	-1578
ious	-1579
▁tal	-1580
▁cada	-1581
▁interest	-1582
▁Re	-1583
▁end	-1584
ually	-1585
inar	-1586
▁idi	-1587
ciones	-1588
▁Voy	-1589
▁trat	-1590
▁happened	-1591
ited	-1592
▁class	-1593
▁comida	-1594
▁perf	-1595
▁grande	-1596
▁food	-1597
▁young	-1598
▁ayudar	-1599
cle	-1600
▁sn	-1601
bres	-1602
▁pay	-1603
▁leer	-1604
ood	-1605
▁May	-1606
vert	-1607
ial	-1608
▁tren	-1609
▁married	-1610
▁books	-1611
▁cost	-1612
esto	-1613
▁libros	-1614
ffe	-1615
raz	-1616
▁Nadie	-1617
▁polic	-1618
we	-1619
▁rel	-1620
▁Some	-1621
▁cant	-1622
▁interes	-1623
▁pon	-1624
quier	-1625
sa	-1626
ros	-1627
hora	-1628
▁study	-1629
▁Australia	-1630
cl	-1631
old	-1632
▁pie	-1633
▁pret	-1634
▁swim	-1635
▁Esp	-1636
▁llegar	-1637
▁ind	-1638
▁month	-1639
▁fi	-1640
eza	-1641
▁extra	-1642
cess	-1643
▁prepar	-1644
cial	-1645
▁trad	-1646
yer	-1647
▁beb	-1648
▁Sami	-1649
▁Todo	-1650
▁condu	-1651
▁heard	-1652
▁place	-1653
▁Tu	-1654
▁cono	-1655
▁vino	-1656
pped	-1657
▁pag	-1658
▁bic	-1659
entro	-1660
▁pronto	-1661
▁conm	-1662
▁gustan	-1663
▁necesit	-1664
▁bueno	-1665
▁conse	-1666
ffee	-1667
▁toda	-1668
▁televis	-1669
▁such	-1670
▁another	-1671
▁os	-1672
▁sat	-1673
▁ayuda	-1674
osp	-1675
ierto	-1676
▁hotel	-1677
▁while	-1678
▁volver	-1679
ize	-1680
▁once	-1681
▁days	-1682
ficult	-1683
▁aprender	-1684
▁difficult	-1685
▁hic	-1686
iente	-1687
▁conmigo	-1688
▁mind	-1689
ocup	-1690
▁miss	-1691
▁mista	-1692
bar	-1693
ider	-1694
▁ref	-1695
▁Eres	-1696
▁tired	-1697
racias	-1698
▁hermana	-1699
cha	-1700
▁bot	-1701
▁creo	-1702
▁ago	-1703
nd	-1704
ancia	-1705
▁looks	-1706
▁alguna	-1707
▁ru	-1708
▁jug	-1709
▁clase	-1710
▁todav	-1711
▁coffee	-1712
▁wish	-1713
▁acer	-1714
▁cual	-1715
▁dream	-1716
▁haciendo	-1717
gg	-1718
ecto	-1719
▁raz	-1720
▁ense	-1721
ff	-1722
nico	-1723
▁lim	-1724
▁cur	-1725
▁gato	-1726
▁hosp	-1727
▁dep	-1728
▁Amer	-1729
▁party	-1730
ins	-1731
▁padres	-1732
una	-1733
ings	-1734
▁Necesito	-1735
▁sido	-1736
▁adv	-1737
▁city	-1738
▁muchas	-1739
▁miedo	-1740
▁nuestra	-1741
gra	-1742
tru	-1743
▁ret	-1744
▁cans	-1745
ever	-1746
▁Por	-1747
ating	-1748
▁woman	-1749
▁Pens	-1750
▁encontrar	-1751
▁truth	-1752
▁diez	-1753
▁which	-1754
▁differ	-1755
▁vo	-1756
▁Solo	-1757
▁contigo	-1758
andon	-1759
▁nuestro	-1760
iesta	-1761
▁tomar	-1762
erv	-1763
▁knew	-1764
▁preocup	-1765
▁each	-1766
▁trabaj	-1767
olog	-1768
▁break	-1769
ors	-1770
▁fiesta	-1771
▁family	-1772
▁sue	-1773
▁hijo	-1774
▁prin	-1775
ane	-1776
▁Ese	-1777
▁lev	-1778
▁carta	-1779
anas	-1780
▁sub	-1781
▁opin	-1782
▁joven	-1783
als	-1784
▁busy	-1785
▁wife	-1786
▁lives	-1787
▁momento	-1788
▁parents	-1789
ised	-1790
▁ment	-1791
Sab	-1792
▁result	-1793
raid	-1794
▁casi	-1795
▁called	-1796
oche	-1797
▁vivir	-1798
▁hospital	-1799
▁profesor	-1800
▁sufici	-1801
▁mod	-1802
▁red	-1803
oking	-1804
▁abr	-1805
▁died	-1806
▁parte	-1807
ts	-1808
atoe	-1809
▁afraid	-1810
lain	-1811
cas	-1812
▁sl	-1813
odr	-1814
▁bet	-1815
▁salir	-1816
▁small	-1817
Lo	-1818
▁familia	-1819
▁important	-1820
""."	-1821
▁try	-1822
▁vive	-1823
▁haven	-1824
eno	-1825
▁listen	-1826
▁its	-1827
▁wonder	-1828
▁ley	-1829
▁cosa	-1830
▁abandon	-1831
▁thr	-1832
atoeba	-1833
▁Hoy	-1834
▁war	-1835
sted	-1836
▁cama	-1837
▁cul	-1838
▁donde	-1839
▁lengua	-1840
It	-1841
▁cinco	-1842
Has	-1843
▁inform	-1844
▁matter	-1845
▁historia	-1846
Puedo	-1847
eg	-1848
▁pueden	-1849
▁nad	-1850
ense	-1851
▁those	-1852
▁tried	-1853
▁Siempre	-1854
ether	-1855
▁Tenemos	-1856
▁accident	-1857
▁few	-1858
▁rom	-1859
▁bast	-1860
▁music	-1861
▁reci	-1862
▁Ahora	-1863
▁Una	-1864
▁eyes	-1865
▁Her	-1866
▁nov	-1867
▁yourself	-1868
▁someone	-1869
▁talking	-1870
uvo	-1871
ages	-1872
ata	-1873
▁easy	-1874
arlo	-1875
▁ale	-1876
▁Would	-1877
▁Sh	-1878
ition	-1879
▁hair	-1880
▁vent	-1881
▁horas	-1882
▁jap	-1883
▁sac	-1884
▁amor	-1885
▁Be	-1886
anger	-1887
cio	-1888
▁extr	-1889
▁word	-1890
ossible	-1891
▁siento	-1892
▁Des	-1893
▁five	-1894
▁Tok	-1895
▁started	-1896
mon	-1897
ieras	-1898
entras	-1899
▁getting	-1900
▁bol	-1901
▁exc	-1902
▁parec	-1903
▁agr	-1904
▁almost	-1905
▁primera	-1906
fono	-1907
▁def	-1908
▁sun	-1909
▁temp	-1910
gether	-1911
▁importante	-1912
vers	-1913
▁num	-1914
▁die	-1915
iones	-1916
▁prob	-1917
ations	-1918
▁change	-1919
▁Japanese	-1920
▁contra	-1921
▁dig	-1922
▁fish	-1923
ale	-1924
nos	-1925
▁else	-1926
▁then	-1927
▁cerca	-1928
rist	-1929
▁acuerdo	-1930
▁problemas	-1931
ases	-1932
▁ojos	-1933
▁light	-1934
▁seems	-1935
▁trabajar	-1936
▁vay	-1937
▁contr	-1938
▁difer	-1939
▁mucha	-1940
▁write	-1941
▁through	-1942
▁aut	-1943
ierra	-1944
▁high	-1945
▁hijos	-1946
▁beh	-1947
▁llor	-1948
▁Tienes	-1949
cep	-1950
zco	-1951
▁bit	-1952
▁pop	-1953
Tienes	-1954
▁pasar	-1955
▁produ	-1956
▁looked	-1957
▁Tatoeba	-1958
▁question	-1959
isto	-1960
▁early	-1961
▁accidente	-1962
▁says	-1963
▁dormir	-1964
▁together	-1965
cula	-1966
dico	-1967
▁gol	-1968
▁resta	-1969
▁pregunta	-1970
dow	-1971
icle	-1972
▁present	-1973
▁reading	-1974
pan	-1975
urr	-1976
▁ham	-1977
▁aren	-1978
▁wear	-1979
Puedes	-1980
▁19	-1981
▁Mon	-1982
▁mano	-1983
▁compu	-1984
▁palabras	-1985
og	-1986
anco	-1987
▁news	-1988
▁Espero	-1989
▁bi	-1990
▁ig	-1991
atro	-1992
▁rob	-1993
▁super	-1994
▁transl	-1995
ea	-1996
▁St	-1997
icho	-1998
ness	-1999
▁table	-2000
▁consider	-2001
iar	-2002
▁Deb	-2003
▁forget	-2004
▁od	-2005
▁cry	-2006
▁fast	-2007
▁might	-2008
▁char	-2009
▁realmente	-2010
▁3	-2011
▁myself	-2012
▁restaur	-2013
▁pict	-2014
▁beg	-2015
▁cum	-2016
▁hub	-2017
▁jugar	-2018
▁anyone	-2019
▁air	-2020
untos	-2021
▁coming	-2022
▁Con	-2023
▁Our	-2024
onces	-2025
▁mean	-2026
▁until	-2027
▁Ger	-2028
▁eating	-2029
alth	-2030
▁mem	-2031
▁var	-2032
iness	-2033
▁pelo	-2034
ush	-2035
▁hate	-2036
▁arm	-2037
▁sil	-2038
▁palabra	-2039
ject	-2040
▁emp	-2041
▁debe	-2042
▁empez	-2043
▁playing	-2044
▁bastante	-2045
▁caus	-2046
As	-2047
▁imag	-2048
▁id	-2049
▁fum	-2050
▁pen	-2051
▁dicho	-2052
▁estudiar	-2053
▁As	-2054
▁fut	-2055
friend	-2056
idas	-2057
▁fire	-2058
▁situ	-2059
▁pelig	-2060
▁hours	-2061
▁Does	-2062
▁near	-2063
▁stand	-2064
▁window	-2065
▁ant	-2066
▁comen	-2067
▁mientras	-2068
▁att	-2069
▁phone	-2070
▁since	-2071
▁extran	-2072
▁Estamos	-2073
▁himself	-2074
▁corr	-2075
▁Esa	-2076
Hay	-2077
more	-2078
osed	-2079
▁bas	-2080
▁novel	-2081
▁gra	-2082
ason	-2083
port	-2084
▁flow	-2085
▁mesa	-2086
▁game	-2087
ily	-2088
▁tall	-2089
got	-2090
▁kid	-2091
▁alto	-2092
▁anymore	-2093
▁ate	-2094
▁words	-2095
▁reun	-2096
quiera	-2097
verdad	-2098
erto	-2099
▁exist	-2100
▁venir	-2101
▁dom	-2102
entos	-2103
▁importa	-2104
▁Fu	-2105
▁God	-2106
▁rad	-2107
▁plane	-2108
ye	-2109
▁sum	-2110
▁acab	-2111
▁camino	-2112
▁expect	-2113
▁menudo	-2114
▁TV	-2115
▁lado	-2116
▁tipo	-2117
▁color	-2118
imiento	-2119
ics	-2120
lack	-2121
ices	-2122
▁Fue	-2123
▁Per	-2124
▁elec	-2125
▁dir	-2126
Quieres	-2127
▁prefer	-2128
▁Som	-2129
▁arr	-2130
▁corre	-2131
▁add	-2132
▁bra	-2133
▁dol	-2134
▁busc	-2135
▁makes	-2136
▁German	-2137
▁computer	-2138
ught	-2139
▁cuid	-2140
▁supp	-2141
▁heart	-2142
▁tempr	-2143
▁times	-2144
ween	-2145
▁neg	-2146
▁puso	-2147
ps	-2148
▁tuvo	-2149
▁decis	-2150
▁dinner	-2151
▁wouldn	-2152
▁necesita	-2153
▁Ar	-2154
▁mine	-2155
▁sick	-2156
rible	-2157
ural	-2158
▁Aqu	-2159
icina	-2160
▁Dios	-2161
▁enem	-2162
▁viene	-2163
▁Am	-2164
▁hun	-2165
▁Estaba	-2166
▁fuerte	-2167
▁Go	-2168
ract	-2169
rbol	-2170
▁dere	-2171
▁laugh	-2172
▁tenemos	-2173
▁law	-2174
▁mos	-2175
▁Euro	-2176
▁cerr	-2177
▁order	-2178
0.	-2179
illas	-2180
▁These	-2181
iso	-2182
land	-2183
ash	-2184
▁az	-2185
▁dev	-2186
▁fall	-2187
▁temprano	-2188
▁Pre	-2189
▁snow	-2190
ira	-2191
omas	-2192
tern	-2193
▁both	-2194
▁cuar	-2195
puesta	-2196
▁number	-2197
▁hac	-2198
▁lad	-2199
▁fell	-2200
▁thir	-2201
▁glass	-2202
▁danger	-2203
▁hombres	-2204
▁estaban	-2205
ilar	-2206
▁flo	-2207
▁mant	-2208
bor	-2209
reet	-2210
▁sound	-2211
▁escribir	-2212
▁experien	-2213
af	-2214
Con	-2215
ele	-2216
llow	-2217
▁hands	-2218
▁levant	-2219
▁everyone	-2220
▁forma	-2221
▁Tell	-2222
▁working	-2223
jero	-2224
▁cho	-2225
▁suc	-2226
▁acerca	-2227
erg	-2228
oud	-2229
▁needs	-2230
▁princi	-2231
▁secret	-2232
▁nues	-2233
▁between	-2234
▁univers	-2235
▁bab	-2236
▁ready	-2237
ior	-2238
▁muri	-2239
▁surpr	-2240
▁tax	-2241
▁face	-2242
▁gener	-2243
uss	-2244
▁milk	-2245
▁fil	-2246
▁unos	-2247
cado	-2248
▁zap	-2249
ierno	-2250
▁cabeza	-2251
▁lla	-2252
▁comes	-2253
▁rich	-2254
▁favorite	-2255
▁Todav	-2256
▁invit	-2257
▁piano	-2258
medi	-2259
▁death	-2260
▁alg	-2261
▁equiv	-2262
▁meeting	-2263
ama	-2264
▁Tr	-2265
▁angry	-2266
▁Cu	-2267
ches	-2268
▁full	-2269
▁park	-2270
▁pasa	-2271
▁nadar	-2272
▁salud	-2273
▁podemos	-2274
bas	-2275
▁bes	-2276
▁ste	-2277
ither	-2278
▁sigu	-2279
enas	-2280
▁5	-2281
aro	-2282
ward	-2283
▁leg	-2284
uerra	-2285
▁spend	-2286
▁guitar	-2287
oca	-2288
uck	-2289
▁also	-2290
▁less	-2291
▁dress	-2292
▁goes	-2293
▁error	-2294
▁pretty	-2295
▁minutos	-2296
▁sentence	-2297
▁ran	-2298
▁dict	-2299
▁hurt	-2300
ilidad	-2301
▁chang	-2302
▁having	-2303
ltima	-2304
▁nice	-2305
▁China	-2306
▁nueva	-2307
▁muerte	-2308
ute	-2309
work	-2310
Com	-2311
ately	-2312
▁cook	-2313
▁Everyone	-2314
▁ju	-2315
▁llo	-2316
▁lunch	-2317
▁punto	-2318
▁esposa	-2319
▁estamos	-2320
▁students	-2321
ator	-2322
▁cora	-2323
▁story	-2324
▁estaci	-2325
▁fueron	-2326
▁against	-2327
eo	-2328
wh	-2329
ized	-2330
▁ext	-2331
▁rest	-2332
▁lunes	-2333
cel	-2334
▁six	-2335
▁espe	-2336
▁incl	-2337
eremos	-2338
▁forgot	-2339
▁living	-2340
mero	-2341
emente	-2342
▁waiting	-2343
▁intel	-2344
▁minutes	-2345
cu	-2346
▁explic	-2347
ket	-2348
las	-2349
bles	-2350
▁calle	-2351
vos	-2352
ouch	-2353
▁pan	-2354
▁contin	-2355
▁station	-2356
▁cualquier	-2357
▁rela	-2358
top	-2359
itud	-2360
▁Much	-2361
▁enter	-2362
▁languages	-2363
ik	-2364
...	-2365
▁bur	-2366
ughter	-2367
iva	-2368
▁born	-2369
adores	-2370
▁hacia	-2371
▁leche	-2372
▁trying	-2373
upid	-2374
▁mol	-2375
▁free	-2376
▁shoes	-2377
▁Christ	-2378
▁cara	-2379
▁cort	-2380
▁police	-2381
▁decided	-2382
Para	-2383
▁hon	-2384
▁set	-2385
▁white	-2386
itch	-2387
▁ech	-2388
▁chica	-2389
▁creer	-2390
▁misma	-2391
▁idioma	-2392
iled	-2393
Sabes	-2394
▁capital	-2395
▁felt	-2396
▁past	-2397
▁song	-2398
▁human	-2399
▁presid	-2400
edor	-2401
iter	-2402
▁compa	-2403
▁others	-2404
loj	-2405
mar	-2406
▁clo	-2407
▁otros	-2408
▁Z	-2409
Ten	-2410
aban	-2411
▁head	-2412
▁poder	-2413
▁Monday	-2414
▁Mr	-2415
orte	-2416
▁agrad	-2417
▁Nobody	-2418
▁primer	-2419
▁edad	-2420
▁orden	-2421
▁manera	-2422
▁Estados	-2423
▁cent	-2424
▁pudo	-2425
▁usar	-2426
▁viol	-2427
▁Esper	-2428
▁ustedes	-2429
▁estos	-2430
▁reloj	-2431
▁conv	-2432
▁wash	-2433
▁street	-2434
▁encanta	-2435
▁tonight	-2436
Des	-2437
▁bajo	-2438
ball	-2439
▁acost	-2440
▁juego	-2441
▁Unidos	-2442
▁zapatos	-2443
ped	-2444
▁gone	-2445
ines	-2446
▁Tiene	-2447
▁different	-2448
▁Sus	-2449
▁Will	-2450
▁black	-2451
▁clean	-2452
▁escap	-2453
Le	-2454
uno	-2455
▁Come	-2456
▁Nuest	-2457
▁broke	-2458
▁falta	-2459
▁sorry	-2460
ello	-2461
▁giv	-2462
▁norm	-2463
▁follow	-2464
▁arrived	-2465
▁sorprend	-2466
▁suficiente	-2467
ses	-2468
eter	-2469
▁dije	-2470
▁encu	-2471
▁Could	-2472
▁Parece	-2473
▁four	-2474
▁Usted	-2475
▁televisi	-2476
nica	-2477
▁usually	-2478
▁daughter	-2479
less	-2480
▁Lle	-2481
▁habr	-2482
▁pidi	-2483
etimes	-2484
▁absol	-2485
▁quien	-2486
▁juntos	-2487
▁perder	-2488
▁equivoc	-2489
con	-2490
▁Bo	-2491
▁mas	-2492
▁movie	-2493
mp	-2494
guas	-2495
▁mur	-2496
▁town	-2497
▁tree	-2498
▁build	-2499
▁office	-2500
▁cansado	-2501
▁entender	-2502
▁enf	-2503
▁Span	-2504
▁manz	-2505
▁esperar	-2506
▁mot	-2507
▁Thank	-2508
▁bicicle	-2509
▁sold	-2510
▁coraz	-2511
▁arre	-2512
▁conta	-2513
▁finished	-2514
▁Ac	-2515
ntos	-2516
ouble	-2517
▁espa	-2518
▁vest	-2519
▁final	-2520
▁poner	-2521
▁queda	-2522
▁travel	-2523
▁ocupado	-2524
▁hablando	-2525
tle	-2526
inas	-2527
▁box	-2528
▁reco	-2529
▁autob	-2530
tica	-2531
▁vio	-2532
▁begin	-2533
▁shouldn	-2534
ierta	-2535
▁kiss	-2536
▁short	-2537
▁verano	-2538
▁Ha	-2539
▁fru	-2540
▁speaks	-2541
▁intelig	-2542
▁drive	-2543
▁health	-2544
▁return	-2545
ures	-2546
▁foto	-2547
▁birth	-2548
▁dolor	-2549
▁ventana	-2550
Se	-2551
Los	-2552
amor	-2553
▁sou	-2554
▁doll	-2555
▁radio	-2556
▁realidad	-2557
gel	-2558
room	-2559
▁strong	-2560
ilo	-2561
unk	-2562
▁Pr	-2563
▁One	-2564
She	-2565
led	-2566
inta	-2567
▁lleva	-2568
▁summer	-2569
▁Son	-2570
▁sig	-2571
▁enjo	-2572
▁pier	-2573
▁prote	-2574
▁longer	-2575
▁leav	-2576
▁cuarto	-2577
▁cuatro	-2578
bed	-2579
▁bon	-2580
▁luz	-2581
tar	-2582
▁pud	-2583
▁popular	-2584
▁dro	-2585
▁whe	-2586
▁Give	-2587
▁prest	-2588
▁turned	-2589
▁gen	-2590
▁van	-2591
▁cond	-2592
ientos	-2593
▁reason	-2594
▁tienda	-2595
ef	-2596
ince	-2597
rown	-2598
▁ass	-2599
istas	-2600
▁manos	-2601
▁simple	-2602
▁hubiera	-2603
ined	-2604
ieren	-2605
▁scar	-2606
▁river	-2607
▁examen	-2608
entemente	-2609
cur	-2610
▁nar	-2611
▁bicicleta	-2612
ull	-2613
Podr	-2614
▁choc	-2615
▁loves	-2616
▁viejo	-2617
▁Spanish	-2618
▁posible	-2619
▁sino	-2620
rote	-2621
usto	-2622
▁Take	-2623
▁seis	-2624
▁quite	-2625
▁ninguna	-2626
▁estudiantes	-2627
antas	-2628
▁baby	-2629
▁princip	-2630
ged	-2631
▁ign	-2632
ction	-2633
fast	-2634
▁swe	-2635
▁dead	-2636
▁ropa	-2637
▁contro	-2638
▁weather	-2639
▁bal	-2640
adora	-2641
▁Lond	-2642
▁pint	-2643
▁guerra	-2644
▁algunos	-2645
▁i	-2646
tos	-2647
tico	-2648
▁Ayer	-2649
▁perdido	-2650
ists	-2651
▁killed	-2652
▁explain	-2653
▁So	-2654
▁blo	-2655
ently	-2656
press	-2657
▁apro	-2658
▁reuni	-2659
▁become	-2660
ont	-2661
▁ido	-2662
▁comm	-2663
▁fing	-2664
▁pris	-2665
▁sola	-2666
▁enamor	-2667
▁stupid	-2668
oke	-2669
tem	-2670
▁atra	-2671
▁sell	-2672
▁mujeres	-2673
ny	-2674
ican	-2675
inos	-2676
▁Ken	-2677
iling	-2678
where	-2679
sta	-2680
ycle	-2681
▁cha	-2682
olver	-2683
▁quit	-2684
▁llevar	-2685
ences	-2686
▁desper	-2687
▁paint	-2688
ility	-2689
▁making	-2690
▁naci	-2691
▁company	-2692
▁buscando	-2693
ks	-2694
▁And	-2695
▁hue	-2696
▁lav	-2697
▁accept	-2698
▁mistake	-2699
▁20	-2700
▁mag	-2701
▁vista	-2702
yed	-2703
ming	-2704
▁cloth	-2705
▁sabes	-2706
▁oficina	-2707
Ella	-2708
uelo	-2709
▁loc	-2710
▁chico	-2711
▁quick	-2712
▁picture	-2713
▁interesting	-2714
ants	-2715
▁hal	-2716
▁dest	-2717
▁sang	-2718
▁lejos	-2719
▁works	-2720
▁pensar	-2721
▁diccion	-2722
▁diction	-2723
ensa	-2724
used	-2725
▁hija	-2726
▁divert	-2727
▁Sab	-2728
▁cut	-2729
▁dark	-2730
▁llama	-2731
▁electr	-2732
▁breakfast	-2733
▁began	-2734
▁coleg	-2735
▁natural	-2736
ya	-2737
▁age	-2738
▁saying	-2739
cri	-2740
▁form	-2741
▁test	-2742
▁afterno	-2743
ats	-2744
▁hice	-2745
Tod	-2746
ona	-2747
▁lie	-2748
▁large	-2749
▁libre	-2750
▁afternoon	-2751
▁respuesta	-2752
▁Many	-2753
▁whole	-2754
eros	-2755
▁adm	-2756
▁caja	-2757
▁media	-2758
pear	-2759
▁div	-2760
▁dra	-2761
▁homework	-2762
hip	-2763
▁gas	-2764
▁lived	-2765
eb	-2766
▁peri	-2767
▁calor	-2768
▁equip	-2769
▁medic	-2770
▁satis	-2771
▁anoche	-2772
▁llamar	-2773
▁student	-2774
▁touch	-2775
▁cierto	-2776
iri	-2777
ted	-2778
▁igual	-2779
▁later	-2780
▁possible	-2781
▁studying	-2782
uci	-2783
uele	-2784
▁hid	-2785
▁cult	-2786
▁mill	-2787
▁point	-2788
▁record	-2789
▁trouble	-2790
▁Get	-2791
▁respons	-2792
tera	-2793
▁poor	-2794
▁close	-2795
▁trust	-2796
▁became	-2797
Ya	-2798
nis	-2799
orn	-2800
▁Pe	-2801
▁aver	-2802
▁funcion	-2803
itten	-2804
▁cuer	-2805
▁pain	-2806
▁japon	-2807
▁Ven	-2808
selves	-2809
▁conven	-2810
ella	-2811
▁arro	-2812
▁older	-2813
▁Ma	-2814
side	-2815
▁key	-2816
▁tea	-2817
▁post	-2818
ensive	-2819
▁chocol	-2820
▁flores	-2821
ste	-2822
▁tot	-2823
▁veo	-2824
isiera	-2825
▁consegu	-2826
▁��	-2827
bamos	-2828
▁desay	-2829
▁progr	-2830
▁terrible	-2831
▁thinking	-2832
▁esperando	-2833
▁diccionario	-2834
jal	-2835
arnos	-2836
▁hund	-2837
▁vend	-2838
▁Which	-2839
can	-2840
itas	-2841
▁luck	-2842
▁canci	-2843
▁clear	-2844
▁wrote	-2845
▁Puedes	-2846
▁America	-2847
▁Nosotros	-2848
▁dictionary	-2849
gn	-2850
alle	-2851
icio	-2852
raba	-2853
▁Jack	-2854
▁publ	-2855
▁taxi	-2856
▁along	-2857
▁fumar	-2858
kes	-2859
leas	-2860
ters	-2861
▁sup	-2862
▁colle	-2863
▁chance	-2864
To	-2865
▁je	-2866
graf	-2867
▁avi	-2868
▁egg	-2869
▁serv	-2870
▁direc	-2871
adamente	-2872
Un	-2873
ton	-2874
ower	-2875
▁animal	-2876
▁enfermo	-2877
:3	-2878
ade	-2879
Eres	-2880
▁ill	-2881
▁bath	-2882
▁paci	-2883
▁Puede	-2884
▁frase	-2885
▁taking	-2886
▁amb	-2887
▁cen	-2888
▁fore	-2889
▁estre	-2890
▁sever	-2891
▁hambre	-2892
▁moment	-2893
▁colegio	-2894
▁interesante	-2895
plic	-2896
▁Mis	-2897
▁duro	-2898
▁rece	-2899
▁largo	-2900
▁morir	-2901
▁clothes	-2902
▁extranjero	-2903
▁fre	-2904
▁ocur	-2905
▁neigh	-2906
▁tocar	-2907
▁correc	-2908
▁estuvo	-2909
ended	-2910
▁amar	-2911
▁escrit	-2912
▁pur	-2913
▁cake	-2914
▁haya	-2915
▁pagar	-2916
▁behind	-2917
▁compar	-2918
umb	-2919
icia	-2920
jado	-2921
▁pick	-2922
▁rico	-2923
▁suerte	-2924
reci	-2925
▁seg	-2926
▁writ	-2927
▁pueda	-2928
▁tendr	-2929
▁doming	-2930
eci	-2931
▁fact	-2932
▁tennis	-2933
▁Ex	-2934
ount	-2935
▁ganas	-2936
▁least	-2937
Que	-2938
▁York	-2939
▁bring	-2940
▁necesito	-2941
▁watching	-2942
Hab	-2943
▁aj	-2944
▁Has	-2945
▁rid	-2946
▁jard	-2947
▁soci	-2948
▁store	-2949
▁tradu	-2950
▁cumple	-2951
ets	-2952
▁bat	-2953
ities	-2954
unque	-2955
eph	-2956
▁perm	-2957
▁unas	-2958
▁Algun	-2959
▁ideas	-2960
▁caught	-2961
▁animales	-2962
rees	-2963
▁agu	-2964
▁carne	-2965
▁vamos	-2966
▁rather	-2967
▁constru	-2968
▁flowers	-2969
We	-2970
▁viaje	-2971
▁cambiar	-2972
▁sentido	-2973
▁Christmas	-2974
▁chocolate	-2975
ola	-2976
▁hu	-2977
▁Jane	-2978
▁capaz	-2979
▁entrar	-2980
▁quedar	-2981
▁algunas	-2982
its	-2983
band	-2984
▁accom	-2985
▁pedir	-2986
▁finish	-2987
▁entonces	-2988
gos	-2989
sas	-2990
fter	-2991
umbre	-2992
▁Stop	-2993
▁foot	-2994
▁acept	-2995
▁hermos	-2996
▁hungry	-2997
▁perros	-2998
▁terminar	-2999
▁ty	-3000
▁Canad	-3001
▁estuv	-3002
▁mater	-3003
ountain	-3004
▁oportun	-3005
▁rev	-3006
▁hasn	-3007
▁stopped	-3008
lares	-3009
▁somos	-3010
▁spent	-3011
▁worry	-3012
▁during	-3013
▁Gracias	-3014
uras	-3015
ention	-3016
▁wearing	-3017
ism	-3018
▁inst	-3019
▁lose	-3020
ismo	-3021
▁ice	-3022
▁caso	-3023
▁sali	-3024
▁regalo	-3025
bra	-3026
culo	-3027
iete	-3028
▁gard	-3029
▁segun	-3030
▁tenis	-3031
▁women	-3032
▁advice	-3033
ecer	-3034
uego	-3035
▁cree	-3036
das	-3037
▁cir	-3038
▁lear	-3039
▁enfad	-3040
▁ignor	-3041
▁nieve	-3042
▁novia	-3043
▁expensive	-3044
chos	-3045
▁team	-3046
▁wine	-3047
▁cielo	-3048
▁vendr	-3049
▁verte	-3050
▁business	-3051
▁nuestros	-3052
▁preguntas	-3053
▁-	-3054
▁alem	-3055
▁earth	-3056
▁cocina	-3057
eme	-3058
ken	-3059
ror	-3060
acio	-3061
enty	-3062
▁der	-3063
▁cien	-3064
▁separ	-3065
▁takes	-3066
uda	-3067
▁Ll	-3068
▁Col	-3069
▁tuv	-3070
▁emple	-3071
▁vacaciones	-3072
▁Sun	-3073
ances	-3074
ement	-3075
▁eran	-3076
▁move	-3077
▁idiomas	-3078
▁perfect	-3079
▁serious	-3080
asi	-3081
bert	-3082
▁flu	-3083
▁perdi	-3084
▁oportunidad	-3085
cto	-3086
Esta	-3087
gull	-3088
▁ded	-3089
▁hit	-3090
▁hus	-3091
▁sad	-3092
▁Ital	-3093
▁malo	-3094
▁birthday	-3095
▁girlfriend	-3096
▁Ad	-3097
tbol	-3098
▁sel	-3099
▁trip	-3100
▁parque	-3101
▁permit	-3102
▁foreign	-3103
apa	-3104
amed	-3105
anda	-3106
itos	-3107
ueva	-3108
xito	-3109
▁eff	-3110
▁iba	-3111
▁piz	-3112
▁concer	-3113
▁animals	-3114
ev	-3115
zas	-3116
fico	-3117
▁New	-3118
▁fas	-3119
▁pude	-3120
▁mostr	-3121
▁comput	-3122
▁second	-3123
▁ej	-3124
▁Ser	-3125
▁opp	-3126
▁camb	-3127
▁half	-3128
▁estas	-3129
▁monta	-3130
▁pregunto	-3131
▁questions	-3132
▁idio	-3133
▁mess	-3134
▁slow	-3135
▁conci	-3136
▁guard	-3137
▁depend	-3138
▁cuidado	-3139
▁husband	-3140
▁estudiante	-3141
pas	-3142
▁At	-3143
ably	-3144
ived	-3145
ured	-3146
▁eng	-3147
▁famos	-3148
▁listo	-3149
▁changed	-3150
▁cumplea	-3151
000	-3152
▁Era	-3153
▁haga	-3154
▁kept	-3155
▁pers	-3156
▁beber	-3157
▁loved	-3158
▁famous	-3159
▁tenido	-3160
orr	-3161
arle	-3162
eblo	-3163
umbr	-3164
▁side	-3165
▁llave	-3166
▁comenz	-3167
▁pueblo	-3168
cy	-3169
ames	-3170
ximo	-3171
vered	-3172
▁craz	-3173
▁dire	-3174
▁fight	-3175
▁encant	-3176
▁regres	-3177
unci	-3178
▁mam	-3179
▁tick	-3180
▁admit	-3181
▁seguir	-3182
▁learning	-3183
▁mountain	-3184
▁problems	-3185
jame	-3186
ntas	-3187
outh	-3188
ules	-3189
▁cou	-3190
▁jam	-3191
▁garden	-3192
▁speaking	-3193
▁dangerous	-3194
igar	-3195
▁cru	-3196
▁glad	-3197
▁heav	-3198
▁mont	-3199
▁requ	-3200
▁belie	-3201
▁catch	-3202
▁equipo	-3203
bs	-3204
▁Em	-3205
orio	-3206
▁blue	-3207
▁econ	-3208
itting	-3209
puesto	-3210
▁careful	-3211
▁outside	-3212
▁conducir	-3213
▁(	-3214
cum	-3215
▁fly	-3216
▁obs	-3217
ution	-3218
▁envi	-3219
▁road	-3220
▁susp	-3221
▁crees	-3222
▁papel	-3223
▁smell	-3224
▁suced	-3225
▁People	-3226
▁conozco	-3227
iza	-3228
▁10	-3229
▁av	-3230
otos	-3231
▁fui	-3232
▁mer	-3233
▁Debes	-3234
▁known	-3235
▁Alguien	-3236
▁siquiera	-3237
oub	-3238
onder	-3239
▁anci	-3240
▁fres	-3241
▁Puedo	-3242
▁gatos	-3243
▁invest	-3244
jet	-3245
▁Ke	-3246
▁bag	-3247
▁bicycle	-3248
▁grandes	-3249
▁trabaja	-3250
▁surprised	-3251
eras	-3252
▁Int	-3253
Algun	-3254
inese	-3255
▁meat	-3256
▁crazy	-3257
▁orgull	-3258
What	-3259
mara	-3260
▁dij	-3261
▁medio	-3262
▁yours	-3263
▁4	-3264
ils	-3265
oro	-3266
▁allow	-3267
▁Os	-3268
▁Spa	-3269
▁cay	-3270
▁bank	-3271
▁incre	-3272
▁opini	-3273
▁thinks	-3274
▁hat	-3275
▁cour	-3276
▁lluv	-3277
▁disap	-3278
▁ganar	-3279
▁secre	-3280
▁quickly	-3281
▁quieren	-3282
ifica	-3283
ltimo	-3284
ticas	-3285
▁alred	-3286
▁errores	-3287
▁primero	-3288
▁whether	-3289
▁building	-3290
▁Just	-3291
▁aleg	-3292
▁orig	-3293
▁deser	-3294
▁inmedi	-3295
Don	-3296
Como	-3297
teca	-3298
▁nego	-3299
▁poem	-3300
▁lista	-3301
▁memor	-3302
▁ruido	-3303
▁played	-3304
▁vuelta	-3305
▁smoking	-3306
▁vec	-3307
pping	-3308
▁cerve	-3309
▁polit	-3310
▁sombr	-3311
▁dentro	-3312
▁lluvia	-3313
▁Chinese	-3314
▁det	-3315
▁pract	-3316
ivos	-3317
▁mid	-3318
▁sud	-3319
▁culpa	-3320
▁Europe	-3321
▁intern	-3322
▁public	-3323
ablemente	-3324
▁Vi	-3325
ades	-3326
▁gets	-3327
▁front	-3328
▁tarea	-3329
▁blanco	-3330
▁vestido	-3331
anza	-3332
▁hol	-3333
avidad	-3334
▁floor	-3335
▁puesto	-3336
▁triste	-3337
▁written	-3338
My	-3339
rew	-3340
▁cla	-3341
ature	-3342
▁means	-3343
▁pleas	-3344
▁cuanto	-3345
▁hundred	-3346
▁strange	-3347
irs	-3348
▁cuch	-3349
▁muse	-3350
▁vaya	-3351
▁escrib	-3352
▁brought	-3353
of	-3354
iles	-3355
▁smo	-3356
▁Espa	-3357
▁pena	-3358
▁exact	-3359
▁siete	-3360
▁United	-3361
▁peligr	-3362
▁temper	-3363
▁success	-3364
▁sentences	-3365
▁bom	-3366
uerzo	-3367
▁case	-3368
▁llorar	-3369
▁Nuestro	-3370
▁entiendo	-3371
▁Ap	-3372
cted	-3373
eren	-3374
▁dogs	-3375
▁grow	-3376
▁Vamos	-3377
▁fuego	-3378
ila	-3379
inal	-3380
vern	-3381
▁tro	-3382
▁Look	-3383
▁abro	-3384
▁mala	-3385
▁salt	-3386
▁relig	-3387
▁shirt	-3388
▁worth	-3389
▁visitar	-3390
▁Sal	-3391
After	-3392
▁Ojal	-3393
▁doub	-3394
▁vivo	-3395
▁Spain	-3396
▁atenci	-3397
▁alrededor	-3398
▁interested	-3399
way	-3400
▁fra	-3401
▁bibl	-3402
▁wall	-3403
▁paper	-3404
▁helped	-3405
▁certain	-3406
▁acostumbr	-3407
▁Br	-3408
irse	-3409
orts	-3410
▁eno	-3411
▁capac	-3412
▁control	-3413
:30.	-3414
rito	-3415
▁cast	-3416
▁Compr	-3417
▁Tokyo	-3418
▁escond	-3419
▁consejo	-3420
▁mistakes	-3421
▁env	-3422
▁tur	-3423
▁aire	-3424
▁meses	-3425
▁pobre	-3426
ump	-3427
▁fur	-3428
▁nor	-3429
ienen	-3430
▁tras	-3431
▁drunk	-3432
▁escal	-3433
▁dollars	-3434
▁quieras	-3435
▁escuchar	-3436
op	-3437
▁cos	-3438
icial	-3439
▁check	-3440
▁offer	-3441
▁entend	-3442
▁muerto	-3443
cido	-3444
ress	-3445
arios	-3446
ected	-3447
▁hagas	-3448
▁volvi	-3449
▁conoce	-3450
▁herself	-3451
▁hiciste	-3452
▁several	-3453
ti	-3454
nes	-3455
aper	-3456
ative	-3457
▁beer	-3458
▁suit	-3459
▁Tokio	-3460
▁agree	-3461
▁banco	-3462
▁biblio	-3463
▁complet	-3464
▁convers	-3465
men	-3466
allo	-3467
book	-3468
▁Hace	-3469
▁cantar	-3470
▁llover	-3471
dos	-3472
▁eaten	-3473
▁France	-3474
▁necess	-3475
▁cerveza	-3476
come	-3477
▁But	-3478
▁sos	-3479
▁hemos	-3480
▁Sunday	-3481
▁camera	-3482
▁derecho	-3483
▁secreto	-3484
▁completamente	-3485
▁Sm	-3486
▁Now	-3487
▁fat	-3488
▁pun	-3489
▁ladr	-3490
Yo	-3491
Yes	-3492
llo	-3493
rob	-3494
▁ur	-3495
cent	-3496
▁ball	-3497
▁fine	-3498
▁priv	-3499
▁Francia	-3500
Oh	-3501
uta	-3502
?"""	-3503
▁Pas	-3504
▁Put	-3505
ented	-3506
mento	-3507
presa	-3508
▁cena	-3509
▁crim	-3510
osible	-3511
▁descu	-3512
▁extre	-3513
▁liked	-3514
▁reach	-3515
▁honest	-3516
▁months	-3517
▁gracias	-3518
izar	-3519
▁Ale	-3520
▁fla	-3521
▁tir	-3522
▁needed	-3523
▁piensa	-3524
▁library	-3525
▁Lay	-3526
▁sky	-3527
fiero	-3528
▁clim	-3529
▁club	-3530
▁sonr	-3531
▁debes	-3532
▁proud	-3533
▁mentir	-3534
▁fig	-3535
▁voz	-3536
clock	-3537
▁enga	-3538
▁aburr	-3539
▁bread	-3540
�!	-3541
vas	-3542
▁sci	-3543
▁fear	-3544
▁loco	-3545
▁mach	-3546
▁send	-3547
▁Maybe	-3548
▁glasses	-3549
▁personal	-3550
▁restaurant	-3551
▁inteligente	-3552
ony	-3553
▁ut	-3554
This	-3555
▁emo	-3556
▁pot	-3557
▁delici	-3558
▁stayed	-3559
▁respond	-3560
▁biblioteca	-3561
ugu	-3562
▁ado	-3563
▁cup	-3564
▁esf	-3565
▁asleep	-3566
isc	-3567
pid	-3568
ques	-3569
▁Try	-3570
▁aff	-3571
▁exac	-3572
▁Navidad	-3573
ula	-3574
aken	-3575
amento	-3576
▁beach	-3577
▁maest	-3578
▁seven	-3579
▁sitio	-3580
imientos	-3581
▁drinking	-3582
▁completely	-3583
eca	-3584
hib	-3585
▁eggs	-3586
▁seas	-3587
ientes	-3588
▁const	-3589
▁writing	-3590
▁sometimes	-3591
▁Everything	-3592
▁restaurante	-3593
teen	-3594
▁""�	-3595
▁gar	-3596
▁ris	-3597
▁Perd	-3598
▁apag	-3599
▁States	-3600
▁treinta	-3601
▁significa	-3602
gi	-3603
amp	-3604
▁Di	-3605
rica	-3606
▁Pol	-3607
▁base	-3608
▁kids	-3609
▁Layla	-3610
▁Somos	-3611
▁blood	-3612
▁cross	-3613
▁girls	-3614
amiento	-3615
▁arrest	-3616
▁closed	-3617
▁crying	-3618
▁huevos	-3619
▁American	-3620
pes	-3621
cios	-3622
▁Har	-3623
Puede	-3624
▁Bill	-3625
▁matem	-3626
▁noise	-3627
▁normal	-3628
▁japones	-3629
▁learned	-3630
▁obl	-3631
iment	-3632
▁Deja	-3633
▁peor	-3634
▁abrir	-3635
▁future	-3636
coh	-3637
▁Keep	-3638
▁boca	-3639
▁inde	-3640
▁star	-3641
▁Today	-3642
▁apple	-3643
▁moder	-3644
▁playa	-3645
▁thirty	-3646
▁feeling	-3647
▁partido	-3648
▁Everybody	-3649
rez	-3650
▁gif	-3651
▁Pien	-3652
▁agre	-3653
▁uncle	-3654
▁leyendo	-3655
▁situaci	-3656
▁conseguir	-3657
ety	-3658
alla	-3659
anqu	-3660
▁gri	-3661
▁Cada	-3662
▁Estos	-3663
▁embar	-3664
▁shall	-3665
▁abroad	-3666
▁encuent	-3667
▁alta	-3668
▁ello	-3669
▁negro	-3670
▁thank	-3671
ational	-3672
osotras	-3673
▁clases	-3674
▁cuesta	-3675
▁correct	-3676
▁Esperanto	-3677
▁terminado	-3678
rodu	-3679
ully	-3680
▁fix	-3681
▁Ziri	-3682
▁ajed	-3683
▁talked	-3684
Mi	-3685
▁ases	-3686
▁sale	-3687
icidad	-3688
▁Estar	-3689
▁alive	-3690
▁smoke	-3691
▁trabajando	-3692
uve	-3693
▁rey	-3694
▁cand	-3695
ificio	-3696
▁organ	-3697
▁sense	-3698
▁asunto	-3699
▁opinion	-3700
▁attention	-3701
orme	-3702
▁Car	-3703
▁Fui	-3704
▁deep	-3705
▁durm	-3706
▁limpi	-3707
▁liter	-3708
▁weight	-3709
▁worked	-3710
▁edificio	-3711
▁probably	-3712
▁6	-3713
dio	-3714
itted	-3715
▁eleg	-3716
▁hold	-3717
▁ship	-3718
▁carro	-3719
▁consci	-3720
▁scared	-3721
▁jugando	-3722
▁running	-3723
▁sleeping	-3724
jes	-3725
▁Ni	-3726
ambi	-3727
idge	-3728
▁sav	-3729
▁sex	-3730
▁top	-3731
▁comun	-3732
▁anybody	-3733
bb	-3734
rim	-3735
ille	-3736
▁ama	-3737
▁sombrero	-3738
imas	-3739
▁Gree	-3740
▁Paris	-3741
▁digas	-3742
▁passed	-3743
▁seemed	-3744
▁imposible	-3745
▁On	-3746
▁atta	-3747
▁cine	-3748
▁broken	-3749
▁Quisiera	-3750
ingu	-3751
▁bird	-3752
▁fort	-3753
▁paid	-3754
▁justo	-3755
▁frente	-3756
▁propia	-3757
▁empezar	-3758
▁invierno	-3759
▁universidad	-3760
abo	-3761
cci	-3762
oco	-3763
une	-3764
ceed	-3765
▁Not	-3766
jeron	-3767
▁cats	-3768
▁appro	-3769
▁barco	-3770
▁regal	-3771
▁arregl	-3772
▁govern	-3773
▁swimming	-3774
gen	-3775
pos	-3776
ched	-3777
▁golf	-3778
▁king	-3779
▁mand	-3780
▁apart	-3781
▁power	-3782
▁Someone	-3783
▁enfermed	-3784
ume	-3785
llas	-3786
▁bos	-3787
▁abog	-3788
▁cenar	-3789
▁quiet	-3790
▁Tierra	-3791
▁pensando	-3792
▁necesitas	-3793
▁impossible	-3794
aka	-3795
▁sy	-3796
onse	-3797
▁Dan	-3798
eless	-3799
quina	-3800
▁Russ	-3801
▁argu	-3802
▁logr	-3803
▁Those	-3804
▁disco	-3805
▁taken	-3806
▁apolog	-3807
▁imagin	-3808
▁viajar	-3809
▁dijiste	-3810
sh	-3811
ala	-3812
▁Co	-3813
▁sir	-3814
illos	-3815
▁land	-3816
▁pied	-3817
▁rema	-3818
▁saben	-3819
▁arrive	-3820
▁futuro	-3821
▁direcci	-3822
▁manzana	-3823
▁raining	-3824
▁Ber	-3825
▁Sup	-3826
▁fac	-3827
▁vos	-3828
ellig	-3829
fully	-3830
▁cere	-3831
▁yell	-3832
▁kitch	-3833
▁mensa	-3834
▁camisa	-3835
▁inside	-3836
▁situation	-3837
▁equivocado	-3838
ela	-3839
usi	-3840
▁Haz	-3841
▁Ind	-3842
▁Jim	-3843
icion	-3844
occer	-3845
▁alcoh	-3846
▁cigar	-3847
▁oblig	-3848
▁kitchen	-3849
At	-3850
uy	-3851
▁If	-3852
etas	-3853
ives	-3854
Crees	-3855
Estoy	-3856
atura	-3857
▁rojo	-3858
▁chess	-3859
▁mouth	-3860
▁rules	-3861
▁siendo	-3862
▁caballo	-3863
▁general	-3864
▁favorito	-3865
▁presidente	-3866
ude	-3867
ross	-3868
▁prov	-3869
▁pizza	-3870
▁serio	-3871
▁opened	-3872
▁dientes	-3873
dom	-3874
eda	-3875
var	-3876
xima	-3877
▁educ	-3878
▁fool	-3879
▁vill	-3880
▁alcan	-3881
▁campo	-3882
▁enjoy	-3883
▁spoke	-3884
▁suelo	-3885
▁voice	-3886
▁descri	-3887
▁teleph	-3888
▁though	-3889
▁traduc	-3890
▁exactly	-3891
▁hermosa	-3892
cked	-3893
▁Rec	-3894
ramos	-3895
▁term	-3896
▁hacen	-3897
▁horse	-3898
▁pesar	-3899
▁recom	-3900
▁segur	-3901
▁econom	-3902
▁movies	-3903
adu	-3904
Quer	-3905
▁dul	-3906
▁cele	-3907
▁comi	-3908
▁docum	-3909
▁newsp	-3910
▁despert	-3911
!""	-3912
Eso	-3913
rate	-3914
▁Sol	-3915
▁hug	-3916
▁toc	-3917
▁body	-3918
▁shar	-3919
▁vide	-3920
▁volv	-3921
father	-3922
▁amiga	-3923
▁matar	-3924
▁Muchos	-3925
▁decisi	-3926
▁satisf	-3927
▁peligro	-3928
▁Sk	-3929
orre	-3930
▁fif	-3931
▁jud	-3932
▁yen	-3933
remos	-3934
▁mere	-3935
▁sens	-3936
▁Ellas	-3937
▁haces	-3938
▁contar	-3939
▁comiendo	-3940
▁8	-3941
eta	-3942
▁chur	-3943
▁2:30.	-3944
▁eight	-3945
▁umbre	-3946
▁viven	-3947
▁choice	-3948
▁either	-3949
▁prison	-3950
▁ajedrez	-3951
▁finally	-3952
▁complain	-3953
For	-3954
ech	-3955
▁cel	-3956
▁eye	-3957
▁pic	-3958
▁clos	-3959
▁mult	-3960
▁port	-3961
ousand	-3962
▁dejes	-3963
▁energ	-3964
▁fruit	-3965
▁escribi	-3966
▁evening	-3967
tero	-3968
There	-3969
▁deal	-3970
▁pant	-3971
▁hurry	-3972
▁sigue	-3973
▁antigu	-3974
▁leaving	-3975
viv	-3976
uera	-3977
adien	-3978
▁duele	-3979
▁rompi	-3980
▁Cuando	-3981
▁Intern	-3982
▁abuelo	-3983
▁belong	-3984
▁walked	-3985
▁Nothing	-3986
▁canadien	-3987
▁esperanto	-3988
bos	-3989
mat	-3990
aria	-3991
inda	-3992
▁ata	-3993
▁paz	-3994
▁alar	-3995
▁dent	-3996
▁wind	-3997
▁novio	-3998
On	-3999
▁Tw	-4000
ffic	-4001
▁Enc	-4002
▁mel	-4003
▁Casi	-4004
▁azul	-4005
▁band	-4006
▁guys	-4007
▁dance	-4008
▁guitarra	-4009
▁informaci	-4010
Ad	-4011
▁Ro	-4012
▁Dec	-4013
▁inn	-4014
Tiene	-4015
ticos	-4016
▁suel	-4017
▁weren	-4018
▁discul	-4019
▁molest	-4020
▁winter	-4021
▁singing	-4022
ran	-4023
onoc	-4024
▁ann	-4025
▁lat	-4026
▁rat	-4027
▁doubt	-4028
▁golpe	-4029
▁green	-4030
▁plays	-4031
▁dispar	-4032
▁descans	-4033
▁9	-4034
Ent	-4035
ilt	-4036
▁Pa	-4037
▁seat	-4038
▁otras	-4039
▁appear	-4040
▁resolver	-4041
▁estudiando	-4042
�?"	-4043
iano	-4044
▁gor	-4045
▁guy	-4046
▁film	-4047
▁abuela	-4048
▁common	-4049
▁paraguas	-4050
▁boyfriend	-4051
▁experiencia	-4052
nas	-4053
caso	-4054
ding	-4055
▁Dej	-4056
▁rum	-4057
▁acom	-4058
▁debo	-4059
▁nerv	-4060
▁sand	-4061
▁trav	-4062
Alguna	-4063
▁cream	-4064
▁guess	-4065
▁invol	-4066
▁lleno	-4067
▁peace	-4068
▁vuest	-4069
▁course	-4070
▁recuer	-4071
▁medicine	-4072
▁information	-4073
eng	-4074
ief	-4075
ians	-4076
onal	-4077
▁Gre	-4078
▁den	-4079
▁vin	-4080
▁cuad	-4081
▁acaba	-4082
▁worse	-4083
▁pasada	-4084
▁promet	-4085
▁sangre	-4086
▁caminar	-4087
▁caliente	-4088
▁television	-4089
Las	-4090
ler	-4091
With	-4092
pend	-4093
zado	-4094
▁atr	-4095
▁sle	-4096
▁boys	-4097
▁desk	-4098
▁ocho	-4099
elcome	-4100
▁evitar	-4101
▁estabas	-4102
▁respect	-4103
.�	-4104
bu	-4105
ike	-4106
▁dan	-4107
ables	-4108
▁Here	-4109
▁Para	-4110
▁empie	-4111
▁estad	-4112
▁luego	-4113
▁Europa	-4114
▁bailar	-4115
▁comido	-4116
▁discut	-4117
▁seeing	-4118
▁showed	-4119
▁venido	-4120
▁patient	-4121
▁umbrella	-4122
▁vosotros	-4123
Usted	-4124
▁Port	-4125
▁peso	-4126
▁igles	-4127
▁twice	-4128
▁marido	-4129
▁hermanos	-4130
▁divertido	-4131
▁exactamente	-4132
lam	-4133
ueve	-4134
▁abo	-4135
▁cop	-4136
jeros	-4137
▁Odio	-4138
▁Quer	-4139
▁dish	-4140
▁duer	-4141
▁safe	-4142
▁aquel	-4143
▁fault	-4144
▁lucky	-4145
▁frases	-4146
▁soccer	-4147
▁silenci	-4148
▁intellig	-4149
▁peligroso	-4150
▁ef	-4151
▁ben	-4152
estas	-4153
▁dese	-4154
▁lead	-4155
▁prue	-4156
▁stra	-4157
▁pared	-4158
▁Pienso	-4159
▁alcohol	-4160
▁difference	-4161
dle	-4162
▁Pl	-4163
▁emb	-4164
ience	-4165
illed	-4166
table	-4167
▁aero	-4168
itamos	-4169
▁knife	-4170
▁revis	-4171
▁compet	-4172
▁twenty	-4173
▁waited	-4174
▁investig	-4175
▁abandoned	-4176
fa	-4177
aged	-4178
iere	-4179
▁Bob	-4180
▁shut	-4181
▁vaso	-4182
▁fotos	-4183
ortable	-4184
▁buenos	-4185
▁correr	-4186
▁dormido	-4187
▁escrito	-4188
▁necesario	-4189
els	-4190
nger	-4191
uerto	-4192
▁hago	-4193
▁sala	-4194
▁disfr	-4195
▁smart	-4196
▁church	-4197
▁ocurri	-4198
▁social	-4199
esa	-4200
ired	-4201
▁osc	-4202
▁vot	-4203
inted	-4204
▁Tuve	-4205
▁comb	-4206
▁dise	-4207
▁shop	-4208
▁vayas	-4209
▁cambio	-4210
▁sudden	-4211
▁address	-4212
▁traffic	-4213
▁comprado	-4214
▁mantener	-4215
▁vacation	-4216
▁necessary	-4217
ned	-4218
iday	-4219
▁Que	-4220
acter	-4221
ustom	-4222
▁bill	-4223
▁hide	-4224
fortun	-4225
▁camin	-4226
▁cumpl	-4227
▁solve	-4228
▁amable	-4229
▁especi	-4230
▁abogado	-4231
▁product	-4232
▁signific	-4233
▁telephone	-4234
met	-4235
▁zo	-4236
▁due	-4237
icias	-4238
razil	-4239
▁taza	-4240
atever	-4241
idades	-4242
▁carry	-4243
▁causa	-4244
▁across	-4245
▁player	-4246
▁conocer	-4247
▁piensas	-4248
▁sitting	-4249
▁younger	-4250
▁il	-4251
Mary	-4252
gent	-4253
▁inj	-4254
▁kil	-4255
▁nac	-4256
▁caro	-4257
▁suic	-4258
▁larga	-4259
▁decidi	-4260
▁missed	-4261
▁slowly	-4262
▁complic	-4263
▁llegado	-4264
▁worried	-4265
▁Prefiero	-4266
▁diferencia	-4267
▁experience	-4268
pon	-4269
endi	-4270
▁Sat	-4271
▁aus	-4272
▁gun	-4273
▁ner	-4274
▁rato	-4275
onozco	-4276
▁Skura	-4277
▁claro	-4278
▁llegu	-4279
▁objet	-4280
▁Brazil	-4281
▁London	-4282
▁sounds	-4283
▁Londres	-4284
▁iglesia	-4285
▁visited	-4286
▁esperaba	-4287
▁everybody	-4288
▁listening	-4289
▁responder	-4290
▁encontrado	-4291
ex	-4292
oda	-4293
▁iz	-4294
oken	-4295
▁squ	-4296
▁cars	-4297
▁detr	-4298
▁regl	-4299
▁Alger	-4300
▁except	-4301
▁succeed	-4302
▁thousand	-4303
▁siguiente	-4304
▁suficientemente	-4305
ji	-4306
iga	-4307
oto	-4308
ury	-4309
arth	-4310
eric	-4311
hood	-4312
▁asp	-4313
▁boss	-4314
ording	-4315
▁piece	-4316
▁caball	-4317
▁cuerpo	-4318
▁desped	-4319
▁native	-4320
▁regret	-4321
▁convert	-4322
▁discuss	-4323
▁mirando	-4324
▁Internet	-4325
▁cuchillo	-4326
▁7	-4327
▁18	-4328
xico	-4329
▁amo	-4330
ystem	-4331
▁flor	-4332
▁Estas	-4333
▁smile	-4334
▁buenas	-4335
▁impres	-4336
▁minute	-4337
▁invited	-4338
▁neighbor	-4339
Do	-4340
▁alum	-4341
mother	-4342
▁Traba	-4343
▁blame	-4344
▁lying	-4345
▁prima	-4346
▁aconse	-4347
▁extrem	-4348
▁single	-4349
▁domingo	-4350
▁history	-4351
▁izquier	-4352
▁program	-4353
▁beginning	-4354
▁Ve	-4355
▁pra	-4356
ectos	-4357
ndose	-4358
▁ante	-4359
▁wood	-4360
▁almor	-4361
▁comet	-4362
▁given	-4363
▁hablo	-4364
▁marav	-4365
▁failed	-4366
Ex	-4367
uk	-4368
gado	-4369
ides	-4370
Despu	-4371
board	-4372
manas	-4373
▁adel	-4374
▁Nueva	-4375
▁divor	-4376
▁excep	-4377
▁interr	-4378
▁account	-4379
▁machine	-4380
▁decision	-4381
Bu	-4382
Pod	-4383
iqu	-4384
ric	-4385
uar	-4386
eron	-4387
isbol	-4388
▁Life	-4389
▁eats	-4390
▁gift	-4391
▁proy	-4392
▁drank	-4393
▁marry	-4394
▁naran	-4395
▁teeth	-4396
▁lawyer	-4397
▁pienso	-4398
▁reglas	-4399
▁Canadian	-4400
▁baseball	-4401
▁president	-4402
▁Sw	-4403
edad	-4404
inte	-4405
irme	-4406
ucha	-4407
▁tri	-4408
▁Quiz	-4409
▁arte	-4410
▁limp	-4411
▁tend	-4412
ically	-4413
uencia	-4414
▁aerop	-4415
▁count	-4416
▁leaves	-4417
▁propio	-4418
▁llevaba	-4419
▁noticias	-4420
gue	-4421
jaro	-4422
▁pet	-4423
▁ves	-4424
▁Ning	-4425
▁vict	-4426
▁centro	-4427
▁island	-4428
▁lenguas	-4429
▁walking	-4430
How	-4431
eld	-4432
key	-4433
icar	-4434
iger	-4435
▁Tan	-4436
▁cow	-4437
entas	-4438
▁irme	-4439
▁rock	-4440
▁tuve	-4441
▁vale	-4442
bierno	-4443
▁Hemos	-4444
▁sugar	-4445
▁tenga	-4446
▁murder	-4447
▁prohib	-4448
▁confiar	-4449
▁totalmente	-4450
▁cub	-4451
▁dam	-4452
izado	-4453
▁jefe	-4454
▁mane	-4455
▁ring	-4456
▁chair	-4457
▁ocurr	-4458
▁video	-4459
▁celebr	-4460
▁comien	-4461
▁expected	-4462
▁pictures	-4463
▁grandfather	-4464
ulo	-4465
void	-4466
▁pul	-4467
culas	-4468
ellos	-4469
▁Dame	-4470
▁infl	-4471
▁advis	-4472
▁borra	-4473
▁defin	-4474
▁ejemp	-4475
▁trees	-4476
▁easily	-4477
▁tierra	-4478
icamente	-4479
▁ability	-4480
▁airport	-4481
▁contest	-4482
▁government	-4483
ha	-4484
bajo	-4485
ongo	-4486
▁Dis	-4487
▁heavy	-4488
▁plant	-4489
▁recib	-4490
▁suffer	-4491
▁felices	-4492
▁mensaje	-4493
▁telling	-4494
por	-4495
gest	-4496
▁Nada	-4497
▁dado	-4498
▁esos	-4499
▁irse	-4500
▁util	-4501
bertad	-4502
encias	-4503
▁autom	-4504
▁cuest	-4505
▁mente	-4506
▁acompa	-4507
▁driving	-4508
▁happens	-4509
▁promise	-4510
▁village	-4511
▁weekend	-4512
pty	-4513
▁tec	-4514
▁emplo	-4515
▁ident	-4516
▁bosque	-4517
▁concert	-4518
▁received	-4519
▁ordenador	-4520
So	-4521
len	-4522
sto	-4523
▁OK	-4524
ager	-4525
ises	-4526
▁Sta	-4527
▁ens	-4528
ional	-4529
▁Pero	-4530
▁crit	-4531
▁frec	-4532
▁torm	-4533
▁Acabo	-4534
▁nobody	-4535
▁descubr	-4536
▁independ	-4537
▁translate	-4538
▁aeropuerto	-4539
Este	-4540
▁Ent	-4541
▁opt	-4542
mania	-4543
▁fasc	-4544
▁tort	-4545
▁bille	-4546
▁brill	-4547
▁chino	-4548
▁commun	-4549
▁helado	-4550
▁report	-4551
▁speech	-4552
▁ticket	-4553
▁Germany	-4554
▁maestro	-4555
▁mejores	-4556
▁diciendo	-4557
▁shopping	-4558
ua	-4559
iro	-4560
▁na	-4561
osos	-4562
▁Podr	-4563
▁comf	-4564
▁fail	-4565
▁lago	-4566
▁warm	-4567
▁asust	-4568
▁birds	-4569
▁verde	-4570
▁borrow	-4571
▁cancel	-4572
▁cartas	-4573
▁deberes	-4574
▁pasando	-4575
▁pescado	-4576
▁Alemania	-4577
▁recuerdo	-4578
▁enfermedad	-4579
rm	-4580
▁'	-4581
▁Uno	-4582
▁fle	-4583
ician	-4584
▁capt	-4585
▁grup	-4586
▁soup	-4587
▁afuera	-4588
▁encima	-4589
▁llaves	-4590
▁precio	-4591
▁taller	-4592
▁Algunos	-4593
▁Ustedes	-4594
▁similar	-4595
▁intentando	-4596
app	-4597
That	-4598
arro	-4599
head	-4600
Tengo	-4601
ggest	-4602
iende	-4603
inado	-4604
vious	-4605
▁gram	-4606
▁paso	-4607
▁price	-4608
▁silla	-4609
▁bother	-4610
▁casado	-4611
▁dejado	-4612
▁tranqu	-4613
▁Debemos	-4614
▁suggest	-4615
▁concierto	-4616
▁escritorio	-4617
ling	-4618
▁Fin	-4619
blico	-4620
▁burn	-4621
▁cole	-4622
▁crow	-4623
▁keys	-4624
▁llov	-4625
▁mint	-4626
▁behav	-4627
▁siste	-4628
▁couple	-4629
▁system	-4630
▁veinte	-4631
atamente	-4632
▁decirle	-4633
▁brothers	-4634
▁canadiense	-4635
eso	-4636
▁ja	-4637
▁apoy	-4638
▁forg	-4639
▁pase	-4640
▁prev	-4641
▁sopa	-4642
▁text	-4643
▁Earth	-4644
▁desap	-4645
▁prisa	-4646
▁repar	-4647
ination	-4648
▁pensaba	-4649
▁pudiera	-4650
▁nuestras	-4651
▁queremos	-4652
aps	-4653
gon	-4654
▁Ir	-4655
▁Ol	-4656
They	-4657
anca	-4658
enos	-4659
ster	-4660
▁Pon	-4661
▁mud	-4662
pring	-4663
▁tast	-4664
▁cruel	-4665
▁funny	-4666
▁chicos	-4667
▁humanos	-4668
▁semanas	-4669
▁funciona	-4670
▁gast	-4671
▁dicen	-4672
▁Aprend	-4673
▁Thanks	-4674
▁pencil	-4675
▁viendo	-4676
▁viento	-4677
▁Encontr	-4678
▁diferente	-4679
cias	-4680
sito	-4681
▁digo	-4682
▁draw	-4683
▁fair	-4684
▁moon	-4685
▁piso	-4686
▁save	-4687
▁brazo	-4688
▁clima	-4689
▁impro	-4690
▁immedi	-4691
▁novela	-4692
▁repente	-4693
▁almuerzo	-4694
▁manzanas	-4695
▁countries	-4696
▁themselves	-4697
zy	-4698
.""	-4699
bia	-4700
col	-4701
ots	-4702
gico	-4703
▁100	-4704
▁Les	-4705
▁lic	-4706
▁oro	-4707
jaros	-4708
▁Debo	-4709
▁Ingl	-4710
▁card	-4711
▁coat	-4712
▁esas	-4713
▁evid	-4714
▁line	-4715
▁nine	-4716
▁venga	-4717
▁demand	-4718
▁espera	-4719
▁expres	-4720
▁perman	-4721
▁desayuno	-4722
▁proyecto	-4723
urs	-4724
ancy	-4725
▁glo	-4726
▁beat	-4727
▁storm	-4728
▁perten	-4729
▁varias	-4730
▁olvides	-4731
bal	-4732
nea	-4733
monos	-4734
▁tard	-4735
▁traje	-4736
▁spoken	-4737
▁message	-4738
▁promised	-4739
▁principio	-4740
ene	-4741
pen	-4742
!"""	-4743
wich	-4744
utely	-4745
▁auth	-4746
cionar	-4747
▁decep	-4748
▁humor	-4749
▁entire	-4750
▁famoso	-4751
▁shower	-4752
▁studied	-4753
▁conocido	-4754
▁correcto	-4755
▁30	-4756
orge	-4757
▁ren	-4758
ieran	-4759
▁Argel	-4760
▁blind	-4761
▁enemy	-4762
▁espal	-4763
▁nueve	-4764
iciones	-4765
▁fantas	-4766
▁yellow	-4767
▁advised	-4768
▁forward	-4769
pidamente	-4770
▁hicieron	-4771
▁newspaper	-4772
▁inmediatamente	-4773
uca	-4774
aked	-4775
ison	-4776
▁Pod	-4777
icult	-4778
▁elev	-4779
▁feed	-4780
▁adopt	-4781
▁depar	-4782
▁dices	-4783
▁ingen	-4784
▁motor	-4785
▁moved	-4786
▁photo	-4787
▁slept	-4788
▁Anoche	-4789
▁bonita	-4790
▁debajo	-4791
▁driver	-4792
▁finger	-4793
▁varios	-4794
▁paciente	-4795
▁corriendo	-4796
"",	-4797
usa	-4798
▁Gu	-4799
onio	-4800
rite	-4801
▁bear	-4802
▁clar	-4803
▁oper	-4804
▁pred	-4805
▁remo	-4806
▁built	-4807
▁empty	-4808
▁abrigo	-4809
▁disappo	-4810
▁meaning	-4811
▁ocupada	-4812
▁special	-4813
▁contento	-4814
▁respecto	-4815
▁grandmother	-4816
vil	-4817
zos	-4818
pose	-4819
rado	-4820
vera	-4821
▁Cre	-4822
▁calm	-4823
▁amist	-4824
▁arroz	-4825
▁clock	-4826
▁instr	-4827
▁insult	-4828
▁observ	-4829
▁noticia	-4830
▁project	-4831
▁ayudarte	-4832
▁silencio	-4833
▁esperanza	-4834
?""	-4835
Soy	-4836
▁pill	-4837
▁type	-4838
Aunque	-4839
▁gradu	-4840
▁abierta	-4841
▁aceptar	-4842
▁incluso	-4843
▁introdu	-4844
▁libertad	-4845
▁recordar	-4846
▁enamorado	-4847
ney	-4848
istr	-4849
▁For	-4850
▁gaf	-4851
▁nie	-4852
allet	-4853
▁Stay	-4854
▁joke	-4855
▁medi	-4856
▁avoid	-4857
▁gusto	-4858
▁Italia	-4859
▁destro	-4860
▁invent	-4861
▁taught	-4862
▁cocinar	-4863
▁favorita	-4864
rop	-4865
ende	-4866
iese	-4867
ique	-4868
▁Esc	-4869
▁Tur	-4870
Every	-4871
rasil	-4872
▁Mike	-4873
▁acus	-4874
▁cous	-4875
▁inoc	-4876
▁gafas	-4877
▁whose	-4878
▁recogn	-4879
▁Algeria	-4880
▁desayun	-4881
▁profess	-4882
▁familiar	-4883
▁traducir	-4884
▁durmiendo	-4885
▁diferentes	-4886
rd	-4887
bla	-4888
uan	-4889
uff	-4890
▁Ge	-4891
ioso	-4892
pace	-4893
poco	-4894
▁Cam	-4895
▁mit	-4896
▁sed	-4897
stood	-4898
▁cell	-4899
▁cier	-4900
▁date	-4901
▁gent	-4902
▁grou	-4903
aterra	-4904
ildren	-4905
▁oraci	-4906
▁press	-4907
▁suena	-4908
▁dreams	-4909
▁quiera	-4910
▁siente	-4911
abilidad	-4912
▁Argelia	-4913
▁tampoco	-4914
▁actually	-4915
▁distingu	-4916
▁Necesitamos	-4917
?�	-4918
Vas	-4919
▁ce	-4920
Hola	-4921
▁aud	-4922
▁lake	-4923
▁autor	-4924
▁cocin	-4925
▁march	-4926
▁sight	-4927
tamento	-4928
▁hiding	-4929
▁tengas	-4930
▁felicidad	-4931
▁Inglaterra	-4932
rel	-4933
▁alf	-4934
▁aum	-4935
icios	-4936
stico	-4937
tener	-4938
▁culp	-4939
▁grat	-4940
▁luna	-4941
▁Italy	-4942
▁Never	-4943
▁asist	-4944
▁llena	-4945
▁sospe	-4946
▁trata	-4947
▁apples	-4948
▁drinks	-4949
▁minuto	-4950
▁useful	-4951
▁dijeron	-4952
▁gustaba	-4953
▁segundo	-4954
▁sentado	-4955
cos	-4956
▁Sr	-4957
atas	-4958
irti	-4959
▁tie	-4960
eraci	-4961
frica	-4962
venes	-4963
▁abri	-4964
▁bebe	-4965
▁held	-4966
▁Smith	-4967
▁parar	-4968
▁chicas	-4969
ualmente	-4970
▁especial	-4971
▁absolutely	-4972
Una	-4973
ceso	-4974
ries	-4975
▁Both	-4976
▁carr	-4977
▁ones	-4978
▁view	-4979
▁wake	-4980
rboles	-4981
▁Maria	-4982
▁absur	-4983
▁subject	-4984
▁wonderful	-4985
Per	-4986
aca	-4987
ecu	-4988
Even	-4989
jada	-4990
orry	-4991
ament	-4992
ology	-4993
▁Dime	-4994
▁Face	-4995
▁diga	-4996
▁ejer	-4997
ection	-4998
▁innoc	-4999
▁sweet	-5000
▁vieja	-5001
▁waste	-5002
▁weeks	-5003
▁Intent	-5004
▁hablan	-5005
▁pastel	-5006
▁piedra	-5007
▁segura	-5008
▁England	-5009
▁aconsej	-5010
▁fishing	-5011
▁partici	-5012
wa	-5013
xto	-5014
eral	-5015
omet	-5016
▁Han	-5017
▁miem	-5018
▁shot	-5019
▁simp	-5020
▁toca	-5021
▁pieza	-5022
▁space	-5023
▁tonto	-5024
▁valor	-5025
▁forest	-5026
▁humano	-5027
▁cooking	-5028
▁somebody	-5029
▁supposed	-5030
▁primavera	-5031
com	-5032
igue	-5033
▁Sos	-5034
▁baj	-5035
▁jun	-5036
▁usa	-5037
ounid	-5038
▁Call	-5039
▁isla	-5040
▁ital	-5041
▁odio	-5042
▁breath	-5043
▁Nuestra	-5044
▁olvidar	-5045
rage	-5046
ctive	-5047
▁rice	-5048
▁fruta	-5049
▁ocult	-5050
▁aunque	-5051
▁perfec	-5052
▁volunt	-5053
▁agradable	-5054
▁estuviera	-5055
▁izquierda	-5056
▁profesora	-5057
pre	-5058
bado	-5059
iced	-5060
▁201	-5061
istic	-5062
▁hier	-5063
▁Osaka	-5064
▁activ	-5065
▁deseo	-5066
▁buscar	-5067
▁member	-5068
▁prueba	-5069
▁vuelto	-5070
▁enemigo	-5071
▁gobierno	-5072
▁maravill	-5073
▁tormenta	-5074
▁estrellas	-5075
▁immediately	-5076
upt	-5077
simo	-5078
▁Mus	-5079
▁camp	-5080
▁lack	-5081
▁pies	-5082
▁among	-5083
▁dirty	-5084
▁tarta	-5085
▁express	-5086
▁hiciera	-5087
▁intenci	-5088
▁sistema	-5089
▁happening	-5090
▁estadounid	-5091
An	-5092
ari	-5093
ram	-5094
▁Mad	-5095
▁asc	-5096
Since	-5097
graph	-5098
isten	-5099
▁Most	-5100
▁Tony	-5101
▁fund	-5102
▁concl	-5103
▁Facebook	-5104
▁horrible	-5105
▁resultado	-5106
Pero	-5107
icen	-5108
▁See	-5109
▁farm	-5110
▁prem	-5111
ecause	-5112
▁Estud	-5113
▁Todas	-5114
▁crowd	-5115
▁hates	-5116
▁junto	-5117
▁queso	-5118
▁tears	-5119
▁bottle	-5120
▁llueve	-5121
▁nervous	-5122
▁purpose	-5123
▁quedarse	-5124
▁naturaleza	-5125
▁aprendiendo	-5126
Be	-5127
▁X	-5128
ili	-5129
,000	-5130
ects	-5131
mail	-5132
▁Viv	-5133
▁ble	-5134
▁tab	-5135
▁duda	-5136
▁marr	-5137
▁mira	-5138
▁muer	-5139
▁pull	-5140
▁corri	-5141
▁rains	-5142
▁stood	-5143
▁verlo	-5144
▁verme	-5145
▁americ	-5146
▁apenas	-5147
▁author	-5148
▁correo	-5149
▁Conozco	-5150
▁accompl	-5151
▁college	-5152
▁profund	-5153
▁universe	-5154
▁universo	-5155
▁orgulloso	-5156
ajo	-5157
igos	-5158
reat	-5159
zada	-5160
▁Res	-5161
ments	-5162
▁drug	-5163
▁raro	-5164
▁llega	-5165
▁oscur	-5166
▁hardly	-5167
▁nuevos	-5168
▁wallet	-5169
▁allowed	-5170
▁position	-5171
▁quedarme	-5172
▁surprise	-5173
▁somewhere	-5174
▁computador	-5175
fo	-5176
▁u	-5177
let	-5178
bras	-5179
ples	-5180
▁dad	-5181
▁map	-5182
▁soul	-5183
▁tram	-5184
▁India	-5185
▁Leave	-5186
▁ejerc	-5187
▁match	-5188
▁menor	-5189
▁preci	-5190
▁asking	-5191
▁cheese	-5192
▁sentir	-5193
▁Russian	-5194
▁ciencia	-5195
▁enferma	-5196
▁entiend	-5197
▁feelings	-5198
▁necesitaba	-5199
aga	-5200
ige	-5201
Esto	-5202
lier	-5203
oria	-5204
tame	-5205
▁inm	-5206
▁wet	-5207
▁Good	-5208
▁odia	-5209
▁bolsa	-5210
▁emerg	-5211
▁butter	-5212
▁lastim	-5213
▁stolen	-5214
▁asiento	-5215
▁derecha	-5216
▁domingos	-5217
fri	-5218
ares	-5219
▁wed	-5220
atoes	-5221
ories	-5222
▁legs	-5223
▁main	-5224
▁obra	-5225
▁repa	-5226
▁using	-5227
▁flower	-5228
▁kissed	-5229
▁botella	-5230
▁letters	-5231
▁muchach	-5232
▁bathroom	-5233
▁borracho	-5234
▁material	-5235
erc	-5236
ole	-5237
rio	-5238
ativ	-5239
ivid	-5240
king	-5241
▁Any	-5242
▁Tal	-5243
▁bike	-5244
▁deja	-5245
▁gana	-5246
▁grit	-5247
▁lies	-5248
▁rech	-5249
▁tong	-5250
▁bored	-5251
▁grupo	-5252
▁venta	-5253
▁wound	-5254
▁Brasil	-5255
▁boring	-5256
▁consum	-5257
▁destru	-5258
▁middle	-5259
▁partir	-5260
▁perdon	-5261
▁puedas	-5262
▁puente	-5263
▁Supongo	-5264
▁concent	-5265
▁covered	-5266
▁satisfe	-5267
▁intentar	-5268
▁simplemente	-5269
▁Ne	-5270
selo	-5271
▁fem	-5272
▁pus	-5273
hemat	-5274
▁self	-5275
▁hones	-5276
▁juega	-5277
▁refle	-5278
▁stone	-5279
▁veget	-5280
▁bridge	-5281
▁descub	-5282
▁existe	-5283
▁neighb	-5284
▁partes	-5285
▁repres	-5286
▁employe	-5287
▁llamada	-5288
▁sabemos	-5289
▁decidido	-5290
▁returned	-5291
▁Realmente	-5292
nic	-5293
onde	-5294
▁civ	-5295
▁mue	-5296
▁ojo	-5297
itive	-5298
ocked	-5299
▁Kate	-5300
▁dibu	-5301
▁tema	-5302
▁deter	-5303
▁mitad	-5304
▁plans	-5305
▁stars	-5306
▁worst	-5307
▁tongue	-5308
▁Algunas	-5309
▁laughed	-5310
▁entiende	-5311
▁realized	-5312
▁apartment	-5313
▁sentimientos	-5314
▁ps	-5315
cuse	-5316
urso	-5317
▁Cal	-5318
culos	-5319
▁cerc	-5320
▁poet	-5321
▁choose	-5322
▁cuidad	-5323
▁noches	-5324
▁empresa	-5325
▁forever	-5326
▁policem	-5327
▁soldier	-5328
▁support	-5329
▁capacidad	-5330
▁encuentra	-5331
▁verdadero	-5332
Fr	-5333
Tu	-5334
ges	-5335
ality	-5336
▁Cons	-5337
▁cita	-5338
▁hamb	-5339
▁lend	-5340
▁phys	-5341
▁Escri	-5342
▁carre	-5343
▁chick	-5344
▁coger	-5345
▁echar	-5346
▁educa	-5347
▁guapa	-5348
▁attend	-5349
▁fuerza	-5350
▁compras	-5351
▁contact	-5352
ape	-5353
bel	-5354
lic	-5355
▁ga	-5356
▁nu	-5357
host	-5358
igui	-5359
▁Was	-5360
▁dud	-5361
▁tor	-5362
▁vel	-5363
▁esqu	-5364
▁pare	-5365
▁pone	-5366
▁sear	-5367
▁attra	-5368
▁juice	-5369
▁biling	-5370
▁museum	-5371
▁platos	-5372
▁resfri	-5373
▁comporta	-5374
Ac	-5375
rt	-5376
piz	-5377
ral	-5378
xim	-5379
atic	-5380
iest	-5381
▁cie	-5382
▁dim	-5383
▁lin	-5384
Where	-5385
izaci	-5386
▁Vivo	-5387
▁join	-5388
▁pref	-5389
▁redu	-5390
▁soft	-5391
▁tuyo	-5392
▁verd	-5393
undial	-5394
▁Satur	-5395
▁acord	-5396
▁feels	-5397
▁taste	-5398
▁coment	-5399
▁llegue	-5400
▁reserv	-5401
▁memoria	-5402
▁neither	-5403
▁interesa	-5404
▁carefully	-5405
▁understood	-5406
gs	-5407
aco	-5408
tom	-5409
ened	-5410
ires	-5411
▁Only	-5412
▁artif	-5413
▁recup	-5414
▁share	-5415
▁stole	-5416
▁viste	-5417
cionado	-5418
▁soport	-5419
eramente	-5420
▁sisters	-5421
▁cambiado	-5422
▁importar	-5423
▁laughing	-5424
▁olvidado	-5425
▁perfecto	-5426
ka	-5427
bye	-5428
olv	-5429
▁Dr	-5430
oses	-5431
▁Lat	-5432
▁Tra	-5433
▁coll	-5434
▁gold	-5435
▁modo	-5436
▁rent	-5437
▁ride	-5438
▁teor	-5439
miento	-5440
▁above	-5441
▁alegr	-5442
▁board	-5443
▁divid	-5444
▁hielo	-5445
▁local	-5446
ibilidad	-5447
▁Italian	-5448
▁decirme	-5449
▁ejemplo	-5450
▁espacio	-5451
▁espalda	-5452
▁llamado	-5453
▁regular	-5454
▁sonrisa	-5455
▁hermanas	-5456
▁standing	-5457
▁delicious	-5458
▁seguridad	-5459
Hoy	-5460
resp	-5461
▁log	-5462
▁owe	-5463
▁vir	-5464
▁Make	-5465
▁Wait	-5466
▁hadn	-5467
▁quem	-5468
▁step	-5469
grimas	-5470
▁crime	-5471
▁democ	-5472
▁honor	-5473
▁absent	-5474
▁attack	-5475
▁custom	-5476
▁decide	-5477
▁planes	-5478
▁disfrut	-5479
▁empieza	-5480
▁jugador	-5481
igi	-5482
▁Rom	-5483
▁fit	-5484
▁uso	-5485
grafo	-5486
▁Juan	-5487
▁Pres	-5488
▁cute	-5489
▁loud	-5490
▁pack	-5491
▁rode	-5492
▁roja	-5493
▁temo	-5494
▁till	-5495
▁crist	-5496
▁dulce	-5497
▁persu	-5498
▁resto	-5499
▁wears	-5500
ibility	-5501
▁George	-5502
▁bonito	-5503
▁contrib	-5504
▁earlier	-5505
▁hermoso	-5506
▁mentira	-5507
▁reconoc	-5508
▁Children	-5509
▁ayudarme	-5510
▁explicar	-5511
▁medicina	-5512
▁apologize	-5513
Sin	-5514
Todos	-5515
▁Mira	-5516
▁coin	-5517
▁feet	-5518
▁firm	-5519
▁stom	-5520
▁surv	-5521
▁actor	-5522
▁adult	-5523
▁cient	-5524
▁nervi	-5525
▁senci	-5526
▁talks	-5527
▁treat	-5528
Alguien	-5529
ualidad	-5530
▁calcul	-5531
▁period	-5532
▁regard	-5533
▁entered	-5534
▁impress	-5535
▁science	-5536
▁aburrido	-5537
▁electric	-5538
▁happiness	-5539
▁acostumbrado	-5540
cr	-5541
elos	-5542
oces	-5543
▁Ask	-5544
▁nom	-5545
▁rub	-5546
ecido	-5547
night	-5548
ushed	-5549
▁Berl	-5550
▁deta	-5551
▁sepa	-5552
▁belle	-5553
▁cerrar	-5554
▁debido	-5555
▁embara	-5556
▁sports	-5557
▁delante	-5558
▁educaci	-5559
▁forgive	-5560
▁reached	-5561
▁wedding	-5562
▁lloviendo	-5563
▁satisfied	-5564
Son	-5565
Come	-5566
bros	-5567
case	-5568
chas	-5569
ondo	-5570
prim	-5571
▁cri	-5572
ouses	-5573
▁Dima	-5574
▁Turn	-5575
▁earn	-5576
▁hang	-5577
▁lent	-5578
▁resc	-5579
▁salv	-5580
▁vege	-5581
endido	-5582
quilla	-5583
▁casas	-5584
▁galle	-5585
▁gives	-5586
▁querr	-5587
▁charge	-5588
▁escape	-5589
▁smiled	-5590
imamente	-5591
▁million	-5592
▁despacio	-5593
▁whatever	-5594
▁encuentro	-5595
▁explained	-5596
fortunately	-5597
▁university	-5598
ims	-5599
uts	-5600
enza	-5601
este	-5602
irar	-5603
pper	-5604
▁Hac	-5605
▁olv	-5606
▁zoo	-5607
Acaso	-5608
Neces	-5609
usion	-5610
▁grew	-5611
▁lady	-5612
▁poss	-5613
▁refr	-5614
▁ended	-5615
▁magaz	-5616
▁respe	-5617
▁demasi	-5618
▁faster	-5619
▁figure	-5620
▁idiota	-5621
▁toward	-5622
▁limpiar	-5623
▁refused	-5624
▁staying	-5625
▁stomach	-5626
▁aquellos	-5627
ert	-5628
rab	-5629
atar	-5630
eles	-5631
enda	-5632
gres	-5633
pher	-5634
▁Bus	-5635
▁Ter	-5636
Ahora	-5637
umped	-5638
▁Dile	-5639
▁arch	-5640
▁astr	-5641
▁corb	-5642
▁desh	-5643
▁lect	-5644
▁magn	-5645
▁tuya	-5646
▁aware	-5647
▁deben	-5648
▁ellas	-5649
▁liber	-5650
▁pocos	-5651
▁empleo	-5652
▁remind	-5653
▁Jackson	-5654
▁aquella	-5655
▁belleza	-5656
▁confund	-5657
▁contain	-5658
▁decirte	-5659
▁escribe	-5660
▁example	-5661
▁almorzar	-5662
▁anywhere	-5663
▁contacto	-5664
▁director	-5665
▁Sometimes	-5666
▁preocupes	-5667
ema	-5668
▁Cl	-5669
acil	-5670
gina	-5671
pida	-5672
yoto	-5673
▁Pro	-5674
▁ban	-5675
astic	-5676
▁lied	-5677
▁risk	-5678
▁roof	-5679
▁atrap	-5680
▁civil	-5681
▁group	-5682
▁llamo	-5683
▁retras	-5684
▁individ	-5685
▁pretend	-5686
▁realize	-5687
▁discurso	-5688
▁suddenly	-5689
ley	-5690
rea	-5691
▁Hu	-5692
gica	-5693
▁Hel	-5694
▁Tus	-5695
▁fed	-5696
▁mic	-5697
▁sym	-5698
ledge	-5699
▁caer	-5700
▁danc	-5701
▁eras	-5702
▁flat	-5703
▁roto	-5704
▁Kyoto	-5705
▁Nancy	-5706
▁quiso	-5707
ulation	-5708
▁factor	-5709
▁object	-5710
▁anciano	-5711
▁cansada	-5712
▁negocio	-5713
▁opportun	-5714
▁policeman	-5715
▁preocupado	-5716
▁computadora	-5717
▁oy	-5718
into	-5719
rass	-5720
▁Jes	-5721
▁ash	-5722
▁cit	-5723
▁joy	-5724
▁low	-5725
▁vig	-5726
icked	-5727
▁goal	-5728
▁skin	-5729
ctions	-5730
icular	-5731
▁bella	-5732
▁cause	-5733
▁exerc	-5734
▁named	-5735
▁ought	-5736
▁relax	-5737
▁suele	-5738
▁confer	-5739
▁fascin	-5740
▁placer	-5741
▁planet	-5742
▁singer	-5743
▁teatro	-5744
▁embargo	-5745
▁cantante	-5746
▁llorando	-5747
▁painting	-5748
▁sobreviv	-5749
▁frecuencia	-5750
chn	-5751
▁Ba	-5752
abas	-5753
mica	-5754
▁ach	-5755
antos	-5756
ianza	-5757
queta	-5758
▁Prob	-5759
▁alma	-5760
▁bols	-5761
▁cool	-5762
▁huge	-5763
▁rule	-5764
▁vier	-5765
terior	-5766
▁abajo	-5767
▁sigui	-5768
▁bigger	-5769
▁button	-5770
▁compla	-5771
▁deport	-5772
▁rechaz	-5773
▁spring	-5774
▁watched	-5775
3.	-5776
Ch	-5777
Hey	-5778
▁Sin	-5779
▁dry	-5780
▁web	-5781
▁Mant	-5782
▁aseg	-5783
▁tent	-5784
▁tour	-5785
▁virt	-5786
▁casar	-5787
▁ghost	-5788
▁keeps	-5789
▁paseo	-5790
▁revol	-5791
▁engine	-5792
▁madera	-5793
▁terror	-5794
▁carrera	-5795
▁haberte	-5796
▁missing	-5797
▁hy	-5798
line	-5799
time	-5800
▁mez	-5801
▁oil	-5802
▁Habl	-5803
▁Hice	-5804
▁hobb	-5805
▁woke	-5806
▁Tambi	-5807
▁canta	-5808
▁peces	-5809
▁torta	-5810
▁traer	-5811
▁blanca	-5812
▁market	-5813
▁orange	-5814
▁within	-5815
▁appreci	-5816
▁haberlo	-5817
▁parecen	-5818
▁planeta	-5819
▁theater	-5820
▁viernes	-5821
▁correcta	-5822
▁innocent	-5823
ltimamente	-5824
▁paciencia	-5825
▁relations	-5826
▁escuchando	-5827
▁intelligent	-5828
▁necesitamos	-5829
Ha	-5830
Tr	-5831
▁ug	-5832
edio	-5833
gues	-5834
sico	-5835
▁Man	-5836
▁pec	-5837
▁Lleg	-5838
▁lots	-5839
▁pond	-5840
▁dedic	-5841
▁hurts	-5842
▁pregn	-5843
▁techo	-5844
▁accent	-5845
▁consid	-5846
▁dishes	-5847
▁incend	-5848
▁dressed	-5849
▁original	-5850
▁straight	-5851
▁tratando	-5852
▁viviendo	-5853
oon	-5854
▁15	-5855
ency	-5856
icul	-5857
isis	-5858
Todav	-5859
alous	-5860
ativa	-5861
▁Love	-5862
▁heat	-5863
▁nose	-5864
▁quej	-5865
▁toma	-5866
tables	-5867
▁fresh	-5868
▁texto	-5869
▁truck	-5870
▁Muchas	-5871
▁conoci	-5872
▁itself	-5873
▁enojado	-5874
▁protect	-5875
▁believes	-5876
▁refriger	-5877
▁traducci	-5878
▁oraciones	-5879
set	-5880
▁ox	-5881
okes	-5882
▁War	-5883
essed	-5884
▁Read	-5885
▁cruz	-5886
▁dete	-5887
▁ears	-5888
▁annoy	-5889
▁blanc	-5890
▁dedos	-5891
▁excel	-5892
▁grave	-5893
▁museo	-5894
▁sinti	-5895
▁threw	-5896
▁toile	-5897
▁declar	-5898
▁houses	-5899
▁pescar	-5900
▁pieces	-5901
▁pierna	-5902
▁probar	-5903
▁soluci	-5904
▁corbata	-5905
▁absoluto	-5906
▁answered	-5907
▁dificult	-5908
▁comfortable	-5909
Su	-5910
ctu	-5911
▁fro	-5912
ellas	-5913
▁Fuji	-5914
▁area	-5915
▁diab	-5916
▁luch	-5917
▁sufr	-5918
▁upon	-5919
▁costs	-5920
▁idiot	-5921
▁asesin	-5922
▁crimen	-5923
▁hechos	-5924
▁advanta	-5925
▁continu	-5926
▁pintura	-5927
▁segunda	-5928
▁Saturday	-5929
▁culpable	-5930
▁negocios	-5931
▁recently	-5932
▁preguntar	-5933
▁considered	-5934
iko	-5935
ris	-5936
yle	-5937
ilty	-5938
▁Hun	-5939
▁pez	-5940
▁sof	-5941
▁unl	-5942
gamos	-5943
▁abst	-5944
▁bomb	-5945
▁enfr	-5946
▁jack	-5947
uvimos	-5948
▁Whose	-5949
▁event	-5950
▁mover	-5951
▁pocas	-5952
▁acento	-5953
▁beauty	-5954
▁cuidar	-5955
▁guilty	-5956
▁pocket	-5957
▁amistad	-5958
▁frances	-5959
▁healthy	-5960
▁noticed	-5961
▁enfadado	-5962
▁muchacho	-5963
▁Something	-5964
▁preparado	-5965
▁discovered	-5966
▁sorprendido	-5967
ctr	-5968
igr	-5969
pet	-5970
rid	-5971
lado	-5972
▁cra	-5973
enses	-5974
itude	-5975
light	-5976
▁arma	-5977
▁boat	-5978
▁cabo	-5979
▁mapa	-5980
▁opci	-5981
▁repe	-5982
▁ruso	-5983
▁wise	-5984
▁Dicen	-5985
▁absor	-5986
▁metro	-5987
▁mirar	-5988
▁stuff	-5989
▁basket	-5990
▁convin	-5991
▁diario	-5992
▁gentle	-5993
▁propos	-5994
▁debemos	-5995
▁definit	-5996
▁honesto	-5997
▁comenzar	-5998
▁football	-5999
▁lenguaje	-6000
▁objetivo	-6001
▁planning	-6002
▁principal	-6003
▁verdaderamente	-6004
Ven	-6005
cen	-6006
▁CD	-6007
aded	-6008
quer	-6009
tado	-6010
tery	-6011
▁Nor	-6012
▁sla	-6013
▁uses	-6014
▁Latin	-6015
▁Their	-6016
▁Write	-6017
▁ambos	-6018
▁becom	-6019
▁harto	-6020
▁pisto	-6021
▁prove	-6022
▁volar	-6023
▁Friday	-6024
▁buying	-6025
▁caused	-6026
▁easier	-6027
▁mismos	-6028
▁relaci	-6029
▁theory	-6030
▁apareci	-6031
▁averigu	-6032
▁casarse	-6033
▁piernas	-6034
▁sospech	-6035
▁tuviera	-6036
▁inocente	-6037
▁japonesa	-6038
▁quedarte	-6039
▁sociedad	-6040
▁japoneses	-6041
▁necesitan	-6042
aso	-6043
mod	-6044
▁Ab	-6045
date	-6046
▁dut	-6047
▁peg	-6048
ident	-6049
ining	-6050
▁Aren	-6051
▁cone	-6052
▁exha	-6053
▁pong	-6054
iremos	-6055
▁Alice	-6056
▁Brown	-6057
▁alarm	-6058
▁miles	-6059
▁siglo	-6060
▁throw	-6061
Gracias	-6062
▁Desear	-6063
▁basura	-6064
▁ganado	-6065
▁ground	-6066
▁nativo	-6067
▁nature	-6068
▁tomado	-6069
▁alumnos	-6070
▁chicken	-6071
▁excepto	-6072
▁Somebody	-6073
▁Yesterday	-6074
▁forgotten	-6075
▁translation	-6076
▁comportamiento	-6077
by	-6078
hi	-6079
And	-6080
ais	-6081
elf	-6082
lace	-6083
remo	-6084
▁Emp	-6085
▁god	-6086
▁imm	-6087
▁iss	-6088
allow	-6089
ferir	-6090
quito	-6091
▁Peter	-6092
▁sacar	-6093
▁saved	-6094
▁thief	-6095
▁arriba	-6096
▁cancer	-6097
▁matrim	-6098
▁enjoyed	-6099
▁recuper	-6100
▁believed	-6101
▁permitir	-6102
▁condition	-6103
▁convencer	-6104
▁ejercicio	-6105
▁finalmente	-6106
▁escribiendo	-6107
▁significado	-6108
ati	-6109
cot	-6110
zca	-6111
▁Ay	-6112
▁Bu	-6113
▁Eg	-6114
Perd	-6115
edom	-6116
▁bri	-6117
▁mut	-6118
▁abre	-6119
▁aunt	-6120
▁cash	-6121
▁hero	-6122
▁jour	-6123
▁ries	-6124
▁surr	-6125
▁abund	-6126
▁ahead	-6127
▁darle	-6128
▁facil	-6129
▁games	-6130
▁usual	-6131
▁alegro	-6132
▁coches	-6133
▁compos	-6134
▁likely	-6135
▁notice	-6136
▁picked	-6137
▁premio	-6138
▁scream	-6139
▁vender	-6140
cilmente	-6141
▁hablado	-6142
▁accepted	-6143
▁disappear	-6144
ery	-6145
ulta	-6146
▁Jul	-6147
▁ace	-6148
▁pid	-6149
▁san	-6150
Vamos	-6151
rselo	-6152
▁ador	-6153
▁fond	-6154
▁pool	-6155
▁rica	-6156
▁vers	-6157
aremos	-6158
▁Bring	-6159
▁arrep	-6160
▁serpi	-6161
cording	-6162
▁agreed	-6163
▁critic	-6164
▁nuevas	-6165
▁oferta	-6166
▁pantal	-6167
▁scient	-6168
▁suicid	-6169
▁Lamento	-6170
▁earthqu	-6171
▁entrada	-6172
▁sientes	-6173
▁vecinos	-6174
▁fotograf	-6175
▁oscuridad	-6176
▁sorprendi	-6177
ijo	-6178
amas	-6179
cito	-6180
guro	-6181
tead	-6182
uros	-6183
uses	-6184
▁ced	-6185
▁pil	-6186
▁sev	-6187
▁diam	-6188
▁estr	-6189
▁hubo	-6190
▁ugly	-6191
Quiero	-6192
▁Greek	-6193
▁broma	-6194
▁cards	-6195
▁field	-6196
▁hayas	-6197
▁lavar	-6198
▁meter	-6199
▁tooth	-6200
▁Columb	-6201
▁actual	-6202
▁asegur	-6203
▁flight	-6204
▁memory	-6205
▁sonido	-6206
▁vuelva	-6207
▁cerrada	-6208
▁deporte	-6209
▁industr	-6210
▁permiso	-6211
▁vuestro	-6212
▁behavior	-6213
▁carretera	-6214
▁despierto	-6215
▁ourselves	-6216
▁translated	-6217
▁posibilidad	-6218
ah	-6219
pez	-6220
uct	-6221
▁Ph	-6222
mago	-6223
ncer	-6224
nimo	-6225
ugal	-6226
▁gay	-6227
ciles	-6228
▁Were	-6229
▁amaz	-6230
▁hell	-6231
▁math	-6232
▁prec	-6233
▁unif	-6234
ission	-6235
though	-6236
▁cheap	-6237
▁steal	-6238
▁explan	-6239
▁filled	-6240
▁giving	-6241
▁parado	-6242
▁toilet	-6243
▁tratar	-6244
hematics	-6245
▁calling	-6246
▁instead	-6247
▁talento	-6248
▁windows	-6249
▁arreglar	-6250
▁sorpresa	-6251
▁distancia	-6252
▁particular	-6253
dr	-6254
my	-6255
Are	-6256
Now	-6257
bil	-6258
zan	-6259
▁12	-6260
ging	-6261
jeta	-6262
▁agar	-6263
▁boda	-6264
▁dedo	-6265
▁iron	-6266
▁rara	-6267
▁sour	-6268
▁andar	-6269
▁corto	-6270
▁heada	-6271
▁linda	-6272
▁piens	-6273
▁Greece	-6274
▁ascens	-6275
▁bright	-6276
▁elegir	-6277
▁harder	-6278
▁proper	-6279
▁century	-6280
▁jealous	-6281
▁naranja	-6282
▁speaker	-6283
▁washing	-6284
▁alcanzar	-6285
▁millones	-6286
▁pregnant	-6287
Os	-6288
Seg	-6289
apt	-6290
elve	-6291
jera	-6292
orro	-6293
ucho	-6294
ware	-6295
▁fer	-6296
▁niv	-6297
itter	-6298
▁runs	-6299
▁brush	-6300
▁cried	-6301
▁despe	-6302
▁tight	-6303
▁toler	-6304
▁access	-6305
▁enorme	-6306
▁tastes	-6307
▁belongs	-6308
▁stories	-6309
▁terremo	-6310
▁encantan	-6311
▁prepared	-6312
▁supuesto	-6313
▁impresion	-6314
▁knowledge	-6315
▁pertenece	-6316
▁interesado	-6317
▁probablemente	-6318
Dis	-6319
for	-6320
ased	-6321
llos	-6322
modo	-6323
▁alc	-6324
▁ras	-6325
▁Show	-6326
▁Time	-6327
▁arru	-6328
▁ater	-6329
▁curr	-6330
▁doce	-6331
▁gall	-6332
▁hall	-6333
▁note	-6334
▁Llevo	-6335
▁ahorr	-6336
▁citiz	-6337
▁nariz	-6338
puestas	-6339
▁Canada	-6340
▁Grecia	-6341
▁center	-6342
▁cuesti	-6343
▁hablas	-6344
▁modern	-6345
▁picnic	-6346
▁ashamed	-6347
▁bedroom	-6348
▁desarro	-6349
▁permite	-6350
▁Portugal	-6351
▁galletas	-6352
▁pronunci	-6353
▁empleados	-6354
▁vegetables	-6355
gle	-6356
ird	-6357
Some	-6358
form	-6359
▁200	-6360
▁Ann	-6361
▁Two	-6362
▁nur	-6363
▁Debe	-6364
▁Reci	-6365
▁dura	-6366
▁neck	-6367
cuenta	-6368
ienven	-6369
▁fired	-6370
▁stick	-6371
▁corner	-6372
▁develo	-6373
▁enferm	-6374
▁quince	-6375
▁smells	-6376
▁society	-6377
According	-6378
▁respondi	-6379
▁solution	-6380
▁soportar	-6381
▁confianza	-6382
▁artificial	-6383
▁casualidad	-6384
irm	-6385
val	-6386
aled	-6387
imed	-6388
mate	-6389
omen	-6390
ping	-6391
rcel	-6392
▁Bet	-6393
▁ess	-6394
nicos	-6395
tempt	-6396
▁Even	-6397
▁alim	-6398
▁disg	-6399
▁Habla	-6400
▁encar	-6401
▁guest	-6402
▁quise	-6403
▁techn	-6404
▁Madrid	-6405
▁detall	-6406
▁master	-6407
▁pelota	-6408
▁thirst	-6409
▁estudio	-6410
▁hacerte	-6411
▁ordered	-6412
▁recibir	-6413
▁estrella	-6414
▁probable	-6415
▁embarrass	-6416
▁employees	-6417
▁explicaci	-6418
▁profundamente	-6419
All	-6420
▁25	-6421
▁50	-6422
▁Ko	-6423
lear	-6424
onto	-6425
orld	-6426
wing	-6427
▁"��	-6428
▁bud	-6429
▁haz	-6430
▁tas	-6431
ipped	-6432
▁grie	-6433
▁intr	-6434
▁liar	-6435
▁obed	-6436
▁pele	-6437
▁warn	-6438
iencia	-6439
▁fondo	-6440
▁hojas	-6441
▁infin	-6442
▁meant	-6443
▁prisi	-6444
▁skirt	-6445
▁sonri	-6446
▁state	-6447
▁stuck	-6448
▁Apenas	-6449
▁barely	-6450
▁cousin	-6451
▁entren	-6452
▁excell	-6453
▁flying	-6454
▁mister	-6455
▁painted	-6456
▁Queremos	-6457
▁starting	-6458
▁ventanas	-6459
▁resfriado	-6460
▁cualquiera	-6461
▁explanation	-6462
▁relationship	-6463
Re	-6464
Dur	-6465
umo	-6466
onna	-6467
▁Bar	-6468
▁Che	-6469
▁Jam	-6470
▁Veo	-6471
▁das	-6472
▁fan	-6473
▁lee	-6474
▁lon	-6475
aster	-6476
ivers	-6477
▁cami	-6478
▁elef	-6479
▁size	-6480
▁influ	-6481
ization	-6482
▁entero	-6483
▁lentes	-6484
▁oscuro	-6485
▁recibi	-6486
▁religi	-6487
▁talent	-6488
▁aliment	-6489
▁adelante	-6490
▁criminal	-6491
▁nervioso	-6492
▁servicio	-6493
▁advantage	-6494
▁pantalones	-6495
:00	-6496
Who	-6497
ius	-6498
ode	-6499
irst	-6500
taci	-6501
▁cep	-6502
▁oto	-6503
Thank	-6504
ativo	-6505
embre	-6506
icted	-6507
▁Rome	-6508
▁fuck	-6509
▁plum	-6510
▁race	-6511
▁sabr	-6512
▁weak	-6513
itions	-6514
metros	-6515
▁brain	-6516
▁calls	-6517
▁guste	-6518
▁hable	-6519
▁terri	-6520
Because	-6521
▁crisis	-6522
▁esposo	-6523
▁lights	-6524
▁origin	-6525
▁romper	-6526
▁sincer	-6527
▁vecino	-6528
▁depende	-6529
▁destino	-6530
▁welcome	-6531
▁involved	-6532
▁passport	-6533
▁recuerda	-6534
▁character	-6535
▁inmediato	-6536
▁seriously	-6537
▁matrimonio	-6538
▁satisfecho	-6539
▁opportunity	-6540
▁disappointed	-6541
ij	-6542
yos	-6543
Good	-6544
ubes	-6545
▁gem	-6546
▁rac	-6547
antly	-6548
▁actr	-6549
▁alqu	-6550
▁aman	-6551
▁anal	-6552
▁lazy	-6553
▁mord	-6554
▁Hablo	-6555
▁Mejor	-6556
▁amena	-6557
▁bajar	-6558
▁dying	-6559
▁pasap	-6560
▁rumor	-6561
▁vuelo	-6562
▁explos	-6563
▁fracas	-6564
▁hables	-6565
▁intend	-6566
▁compart	-6567
▁courage	-6568
▁manejar	-6569
▁obvious	-6570
▁prometi	-6571
▁results	-6572
▁tiempos	-6573
▁vuestra	-6574
▁willing	-6575
▁discutir	-6576
▁esfuerzo	-6577
▁followed	-6578
▁italiano	-6579
▁listened	-6580
▁multitud	-6581
▁soldados	-6582
▁cincuenta	-6583
▁experiment	-6584
▁friendship	-6585
▁responsable	-6586
Ah	-6587
ids	-6588
nal	-6589
rar	-6590
umi	-6591
▁Im	-6592
appy	-6593
ocks	-6594
▁San	-6595
ength	-6596
esper	-6597
▁abol	-6598
▁diet	-6599
▁frut	-6600
▁pair	-6601
▁pisc	-6602
▁pose	-6603
▁acerc	-6604
▁metal	-6605
▁occur	-6606
▁salvo	-6607
Podemos	-6608
▁barato	-6609
▁effect	-6610
▁herido	-6611
▁llamas	-6612
▁parada	-6613
▁respet	-6614
▁absence	-6615
▁cabello	-6616
▁cigaret	-6617
▁escucha	-6618
▁funeral	-6619
▁largest	-6620
▁pleased	-6621
▁request	-6622
▁arrested	-6623
▁distance	-6624
▁headache	-6625
▁excelente	-6626
▁mintiendo	-6627
▁resultados	-6628
▁extranjeros	-6629
vail	-6630
▁rar	-6631
icans	-6632
▁Algo	-6633
▁Roma	-6634
▁evil	-6635
▁evol	-6636
▁Betty	-6637
▁Linda	-6638
▁White	-6639
▁World	-6640
▁arena	-6641
▁ayude	-6642
▁desaf	-6643
▁horiz	-6644
▁huele	-6645
▁judge	-6646
▁plato	-6647
▁refer	-6648
▁yenes	-6649
uestros	-6650
▁altern	-6651
▁dormit	-6652
▁myster	-6653
▁resist	-6654
▁search	-6655
▁season	-6656
▁usando	-6657
▁vuelve	-6658
▁washed	-6659
▁bienven	-6660
▁cookies	-6661
▁desapar	-6662
▁ninguno	-6663
▁plantas	-6664
▁descanso	-6665
▁pleasure	-6666
▁education	-6667
▁excellent	-6668
▁propuesta	-6669
bit	-6670
eds	-6671
▁Or	-6672
etes	-6673
haps	-6674
pret	-6675
▁Rep	-6676
▁cad	-6677
▁ore	-6678
Desde	-6679
ander	-6680
arter	-6681
dicos	-6682
jeras	-6683
under	-6684
▁Hubo	-6685
▁Paul	-6686
Cuanto	-6687
▁Despu	-6688
▁amaba	-6689
▁hobby	-6690
▁Estuve	-6691
▁Siento	-6692
▁clever	-6693
▁estuve	-6694
▁silent	-6695
▁tempor	-6696
▁twelve	-6697
Entonces	-6698
▁changes	-6699
▁estudia	-6700
▁revista	-6701
▁cantidad	-6702
▁derechos	-6703
▁aprendido	-6704
sc	-6705
Well	-6706
iage	-6707
ioto	-6708
usta	-6709
▁Spe	-6710
▁ard	-6711
▁shy	-6712
quete	-6713
▁appo	-6714
▁arms	-6715
▁baja	-6716
▁cred	-6717
▁meta	-6718
▁piel	-6719
Excuse	-6720
▁grass	-6721
▁pobla	-6722
▁trajo	-6723
▁locked	-6724
▁trampa	-6725
▁cerebro	-6726
▁freedom	-6727
▁injured	-6728
▁managed	-6729
▁Columbus	-6730
▁determin	-6731
▁incendio	-6732
▁internet	-6733
▁potatoes	-6734
▁sandwich	-6735
▁teaching	-6736
▁abandonar	-6737
▁classroom	-6738
▁complaining	-6739
▁inteligencia	-6740
kn	-6741
One	-6742
uls	-6743
ners	-6744
▁alt	-6745
▁ara	-6746
▁juz	-6747
▁kne	-6748
▁mej	-6749
▁yes	-6750
Nunca	-6751
icate	-6752
idado	-6753
iloso	-6754
rdida	-6755
risto	-6756
▁Hold	-6757
▁Last	-6758
▁Mill	-6759
▁appe	-6760
▁beso	-6761
▁guap	-6762
▁harm	-6763
▁rose	-6764
▁suyo	-6765
▁vote	-6766
▁Kioto	-6767
▁adecu	-6768
▁brown	-6769
▁nubes	-6770
▁nurse	-6771
acional	-6772
▁Mother	-6773
▁Tienen	-6774
▁afford	-6775
▁curios	-6776
▁gratis	-6777
▁merece	-6778
▁pareja	-6779
▁avergon	-6780
▁deserve	-6781
▁dropped	-6782
▁fingers	-6783
▁instrum	-6784
▁Tomorrow	-6785
▁practice	-6786
▁pasaporte	-6787
▁appreciate	-6788
▁population	-6789
▁Probablemente	-6790
uce	-6791
▁14	-6792
▁Gr	-6793
irte	-6794
orea	-6795
▁Pap	-6796
▁pir	-6797
Hasta	-6798
ibles	-6799
▁atre	-6800
▁avis	-6801
▁duty	-6802
▁grab	-6803
▁mail	-6804
▁sobr	-6805
uguese	-6806
▁Decid	-6807
▁derro	-6808
▁finan	-6809
▁fixed	-6810
▁graci	-6811
▁oppos	-6812
▁prize	-6813
▁reser	-6814
▁round	-6815
▁songs	-6816
▁tanta	-6817
▁third	-6818
▁artist	-6819
▁begins	-6820
▁duerme	-6821
▁mirror	-6822
▁provoc	-6823
utamente	-6824
▁accused	-6825
▁mention	-6826
▁molesta	-6827
▁poblaci	-6828
▁precios	-6829
▁reality	-6830
▁tomando	-6831
▁admitted	-6832
▁cantando	-6833
▁exercise	-6834
▁greatest	-6835
▁proteger	-6836
▁regresar	-6837
▁whenever	-6838
▁extremely	-6839
neo	-6840
urb	-6841
igas	-6842
lido	-6843
ouds	-6844
▁Mag	-6845
▁lay	-6846
▁tow	-6847
▁urg	-6848
cluso	-6849
razos	-6850
urado	-6851
▁Toda	-6852
▁cint	-6853
▁desn	-6854
▁junt	-6855
▁lock	-6856
▁mood	-6857
▁page	-6858
▁rang	-6859
▁corta	-6860
▁cover	-6861
▁darme	-6862
▁doble	-6863
▁incid	-6864
▁incom	-6865
▁sharp	-6866
▁weird	-6867
▁energy	-6868
▁forced	-6869
▁fuiste	-6870
▁vivido	-6871
▁carried	-6872
▁emocion	-6873
▁matters	-6874
▁piensan	-6875
▁studies	-6876
▁tarjeta	-6877
▁vegetar	-6878
▁argument	-6879
▁continue	-6880
▁fighting	-6881
▁programa	-6882
▁soldiers	-6883
▁supermer	-6884
▁compraste	-6885
▁convinced	-6886
▁desayunar	-6887
▁escaleras	-6888
▁Portuguese	-6889
▁embarazada	-6890
Nos	-6891
oko	-6892
roe	-6893
▁Va	-6894
▁ib	-6895
acer	-6896
oles	-6897
▁rod	-6898
ndome	-6899
tamos	-6900
▁jump	-6901
▁sons	-6902
▁whom	-6903
icians	-6904
market	-6905
▁decor	-6906
▁dieta	-6907
▁etern	-6908
▁faith	-6909
▁hogar	-6910
▁huevo	-6911
▁optim	-6912
▁sirve	-6913
▁vimos	-6914
intment	-6915
▁Pronto	-6916
▁casada	-6917
▁commit	-6918
▁dieron	-6919
▁humana	-6920
▁nearly	-6921
ivamente	-6922
▁artista	-6923
▁materna	-6924
▁mayores	-6925
▁mercado	-6926
▁piscina	-6927
▁portugu	-6928
▁facilidad	-6929
▁habilidad	-6930
▁invitados	-6931
▁supermarket	-6932
fl	-6933
ls	-6934
ob	-6935
Why	-6936
uary	-6937
▁Isn	-6938
▁bow	-6939
▁lit	-6940
▁spl	-6941
entar	-6942
iebre	-6943
ierda	-6944
ising	-6945
▁Octo	-6946
▁conn	-6947
▁furn	-6948
▁meth	-6949
▁stat	-6950
▁verg	-6951
▁wore	-6952
ltimos	-6953
▁Tendr	-6954
▁ducha	-6955
▁fifty	-6956
▁norte	-6957
▁raise	-6958
▁sacri	-6959
▁veloc	-6960
▁dispon	-6961
▁insist	-6962
▁pareci	-6963
▁salido	-6964
▁spread	-6965
▁thanks	-6966
▁visita	-6967
▁writer	-6968
▁attempt	-6969
▁created	-6970
▁cultura	-6971
▁parecer	-6972
▁quedado	-6973
▁caballos	-6974
▁completo	-6975
▁magazine	-6976
▁prestado	-6977
▁quisiera	-6978
▁teachers	-6979
▁temperature	-6980
By	-6981
Sal	-6982
aya	-6983
▁Lu	-6984
adir	-6985
bito	-6986
ezco	-6987
geno	-6988
tres	-6989
ulto	-6990
▁Men	-6991
▁deg	-6992
▁gat	-6993
estra	-6994
▁Llev	-6995
▁Toma	-6996
▁irte	-6997
▁kilo	-6998
ctubre	-6999
▁avail	-7000
▁climb	-7001
▁equal	-7002
▁escla	-7003
▁gordo	-7004
▁naked	-7005
▁repet	-7006
▁espejo	-7007
▁fuimos	-7008
▁ingles	-7009
▁invite	-7010
▁jumped	-7011
▁poison	-7012
▁raised	-7013
▁rights	-7014
▁robado	-7015
▁viejos	-7016
▁October	-7017
▁Welcome	-7018
▁cometer	-7019
▁comunic	-7020
▁hearing	-7021
▁ausencia	-7022
▁convince	-7023
▁particip	-7024
▁certainly	-7025
▁apartamento	-7026
▁temperatura	-7027
Ap	-7028
Ve	-7029
aces	-7030
alax	-7031
cean	-7032
ileg	-7033
▁Bel	-7034
▁Rem	-7035
▁obe	-7036
ianos	-7037
icago	-7038
ntate	-7039
phone	-7040
uelve	-7041
▁Didn	-7042
▁Llam	-7043
▁Wash	-7044
▁flag	-7045
▁rosa	-7046
uerzos	-7047
▁Islam	-7048
▁cargo	-7049
▁conte	-7050
▁hecha	-7051
▁revel	-7052
Conoces	-7053
ilities	-7054
▁Argent	-7055
▁Father	-7056
▁acabar	-7057
▁cuerda	-7058
▁fiebre	-7059
▁jacket	-7060
▁manten	-7061
▁median	-7062
▁sooner	-7063
▁threat	-7064
▁Chicago	-7065
▁article	-7066
▁culture	-7067
▁fifteen	-7068
▁prestar	-7069
▁promesa	-7070
▁renunci	-7071
▁robaron	-7072
▁consigui	-7073
▁escritor	-7074
▁midnight	-7075
▁canciones	-7076
▁conciencia	-7077
▁responsible	-7078
▁conocimiento	-7079
▁supermercado	-7080
▁absolutamente	-7081
azz	-7082
het	-7083
udy	-7084
aves	-7085
onia	-7086
segu	-7087
usia	-7088
xual	-7089
yond	-7090
▁199	-7091
▁Ant	-7092
▁Ped	-7093
▁Say	-7094
▁Sim	-7095
▁cot	-7096
▁ski	-7097
▁Como	-7098
▁cola	-7099
▁irre	-7100
▁acuer	-7101
▁champ	-7102
▁eleph	-7103
▁poema	-7104
▁remar	-7105
▁shout	-7106
▁includ	-7107
▁moving	-7108
▁conocen	-7109
▁correos	-7110
▁imagine	-7111
▁mostrar	-7112
▁ocurrir	-7113
▁pronoun	-7114
▁convirti	-7115
▁enemigos	-7116
ify	-7117
▁Ah	-7118
Hace	-7119
Mira	-7120
bios	-7121
cles	-7122
unda	-7123
▁Cat	-7124
▁Det	-7125
▁Mil	-7126
asure	-7127
bling	-7128
elled	-7129
ental	-7130
▁Esos	-7131
▁Help	-7132
▁Sent	-7133
▁drop	-7134
▁dumb	-7135
▁lift	-7136
▁meal	-7137
▁moda	-7138
▁Ambos	-7139
▁Watch	-7140
▁creen	-7141
▁fever	-7142
▁llevo	-7143
▁mante	-7144
ientras	-7145
▁Mexico	-7146
▁alegra	-7147
▁allerg	-7148
▁anillo	-7149
▁cruzar	-7150
▁famosa	-7151
▁formas	-7152
▁gotten	-7153
▁maleta	-7154
▁Pareces	-7155
▁conoces	-7156
▁conserv	-7157
▁cumplir	-7158
▁ascensor	-7159
▁elevator	-7160
▁wondered	-7161
▁caminando	-7162
▁following	-7163
▁necesidad	-7164
▁neighbors	-7165
▁comprender	-7166
kay	-7167
ope	-7168
zen	-7169
char	-7170
eday	-7171
mame	-7172
▁198	-7173
▁Day	-7174
▁Ste	-7175
▁Vas	-7176
▁inh	-7177
▁nev	-7178
▁veh	-7179
estos	-7180
ified	-7181
rmelo	-7182
▁abdu	-7183
▁llen	-7184
▁prot	-7185
▁Mucha	-7186
▁awake	-7187
▁brome	-7188
▁cloud	-7189
▁cough	-7190
▁darte	-7191
▁limit	-7192
▁major	-7193
▁subir	-7194
▁vende	-7195
▁weigh	-7196
▁Polish	-7197
▁brazos	-7198
▁clouds	-7199
▁design	-7200
▁effort	-7201
▁imagen	-7202
▁llevas	-7203
▁lonely	-7204
▁rained	-7205
Mientras	-7206
▁bandera	-7207
▁recoger	-7208
▁teaches	-7209
▁thirsty	-7210
▁averiguar	-7211
▁mountains	-7212
▁violencia	-7213
▁earthquake	-7214
▁medianoche	-7215
▁mantequilla	-7216
iff	-7217
umn	-7218
▁Ob	-7219
▁ow	-7220
olar	-7221
reen	-7222
asses	-7223
eding	-7224
stica	-7225
▁hill	-7226
▁nave	-7227
▁path	-7228
▁punt	-7229
▁pollo	-7230
▁Should	-7231
▁astron	-7232
▁beyond	-7233
▁defend	-7234
▁instru	-7235
▁losing	-7236
▁riesgo	-7237
▁sabido	-7238
▁acabado	-7239
▁classes	-7240
▁enemies	-7241
▁hacerme	-7242
▁informe	-7243
▁mejorar	-7244
▁pedirle	-7245
▁bolsillo	-7246
▁comienzo	-7247
▁empezado	-7248
▁marriage	-7249
▁patience	-7250
▁proposal	-7251
▁strength	-7252
▁conscious	-7253
▁pretended	-7254
▁consciente	-7255
▁conversaci	-7256
▁everywhere	-7257
▁examination	-7258
▁normalmente	-7259
9.	-7260
mb	-7261
riz	-7262
tin	-7263
▁Mu	-7264
▁Sa	-7265
▁ri	-7266
abul	-7267
born	-7268
cket	-7269
mend	-7270
▁Alm	-7271
▁Mat	-7272
▁Mur	-7273
▁reh	-7274
▁tap	-7275
Which	-7276
istes	-7277
ntico	-7278
▁Cual	-7279
▁abra	-7280
▁blow	-7281
▁calc	-7282
▁cogi	-7283
▁jugo	-7284
▁none	-7285
▁nota	-7286
▁sust	-7287
iertas	-7288
▁Trans	-7289
▁benef	-7290
▁incap	-7291
▁malas	-7292
▁mouse	-7293
▁names	-7294
▁pants	-7295
▁solar	-7296
▁telef	-7297
▁Compar	-7298
▁divers	-7299
▁plants	-7300
▁sucedi	-7301
▁adentro	-7302
▁capable	-7303
▁colores	-7304
▁dancing	-7305
▁failure	-7306
▁haberme	-7307
▁hablaba	-7308
▁helping	-7309
▁approach	-7310
▁handsome	-7311
▁keyboard	-7312
▁murieron	-7313
▁suitcase	-7314
▁contrario	-7315
▁distinguir	-7316
▁individual	-7317
▁importancia	-7318
uo	-7319
Ser	-7320
From	-7321
ards	-7322
dito	-7323
ecen	-7324
iant	-7325
ival	-7326
mico	-7327
▁Lin	-7328
▁obt	-7329
aving	-7330
▁desm	-7331
▁patr	-7332
▁roll	-7333
▁spir	-7334
▁weap	-7335
▁wild	-7336
itable	-7337
▁Hasta	-7338
▁ciego	-7339
▁conce	-7340
▁imper	-7341
▁luces	-7342
▁nivel	-7343
▁solos	-7344
▁vemos	-7345
Without	-7346
▁castle	-7347
▁conden	-7348
▁cuello	-7349
▁mediod	-7350
▁wealth	-7351
▁Ninguno	-7352
▁democra	-7353
▁holiday	-7354
▁iguales	-7355
▁illness	-7356
▁members	-7357
▁octubre	-7358
▁pensado	-7359
▁supiera	-7360
▁castillo	-7361
▁complete	-7362
▁esconder	-7363
▁according	-7364
▁professor	-7365
▁neighborhood	-7366
ked	-7367
law	-7368
▁16	-7369
▁17	-7370
▁Fl	-7371
▁om	-7372
game	-7373
ints	-7374
olvi	-7375
wers	-7376
▁Hag	-7377
▁Mom	-7378
▁cog	-7379
▁wit	-7380
Deber	-7381
culpe	-7382
▁Lear	-7383
▁bail	-7384
▁fill	-7385
▁horm	-7386
▁puer	-7387
ashion	-7388
▁alien	-7389
▁betra	-7390
▁curso	-7391
▁email	-7392
▁gonna	-7393
▁helps	-7394
▁jokes	-7395
▁quebr	-7396
▁shoot	-7397
▁speci	-7398
▁total	-7399
cientos	-7400
▁drogas	-7401
▁herida	-7402
▁nation	-7403
▁podido	-7404
▁quedan	-7405
▁sleepy	-7406
▁cartera	-7407
▁experim	-7408
▁ciudades	-7409
▁national	-7410
▁preocupa	-7411
▁profundo	-7412
▁Americans	-7413
▁childhood	-7414
▁velocidad	-7415
▁condiciones	-7416
Unfortunately	-7417
▁estadounidense	-7418
Sh	-7419
Rec	-7420
iny	-7421
jeto	-7422
pete	-7423
▁ast	-7424
▁ger	-7425
brica	-7426
iable	-7427
▁Arab	-7428
▁Conf	-7429
▁Each	-7430
▁acep	-7431
▁jugu	-7432
▁pere	-7433
▁capit	-7434
▁fence	-7435
▁galax	-7436
▁primo	-7437
▁resem	-7438
▁sport	-7439
▁calcet	-7440
▁candid	-7441
▁cuadro	-7442
▁flauta	-7443
▁juegos	-7444
▁method	-7445
▁paying	-7446
▁querer	-7447
▁seldom	-7448
▁depends	-7449
▁discusi	-7450
▁disease	-7451
▁fortune	-7452
▁fracaso	-7453
▁improve	-7454
▁teclado	-7455
▁Recuerdo	-7456
▁friendly	-7457
▁miembros	-7458
▁muchacha	-7459
▁violence	-7460
▁available	-7461
▁billetera	-7462
▁empezando	-7463
▁expecting	-7464
▁prohibido	-7465
▁conversation	-7466
▁intelligence	-7467
▁trabajadores	-7468
Is	-7469
Can	-7470
arm	-7471
ern	-7472
ule	-7473
▁Na	-7474
Todo	-7475
eliz	-7476
emon	-7477
gged	-7478
uted	-7479
▁ego	-7480
▁nuc	-7481
Bueno	-7482
iture	-7483
▁bite	-7484
▁burl	-7485
▁dece	-7486
▁diag	-7487
▁disl	-7488
icious	-7489
iction	-7490
▁Olvid	-7491
▁acabo	-7492
▁agarr	-7493
▁ambul	-7494
▁angel	-7495
▁fluid	-7496
▁kinds	-7497
▁labor	-7498
▁sales	-7499
▁solic	-7500
▁Escuch	-7501
▁Fuimos	-7502
▁aprove	-7503
▁cortar	-7504
▁culpar	-7505
▁distra	-7506
▁enviar	-7507
▁spends	-7508
▁stairs	-7509
▁starts	-7510
▁supone	-7511
icionado	-7512
▁amazing	-7513
▁clearly	-7514
▁collect	-7515
▁escapar	-7516
▁esquina	-7517
▁existen	-7518
▁foolish	-7519
▁goodbye	-7520
▁offered	-7521
▁philoso	-7522
▁pistola	-7523
▁private	-7524
▁regalos	-7525
▁sweater	-7526
▁workers	-7527
▁concentr	-7528
▁voluntad	-7529
▁vosotras	-7530
▁descubrir	-7531
▁terremoto	-7532
▁dormitorio	-7533
▁mathematics	-7534
Habl	-7535
rash	-7536
▁doy	-7537
▁wol	-7538
ienta	-7539
ortal	-7540
zando	-7541
▁acqu	-7542
▁jazz	-7543
▁lean	-7544
▁moto	-7545
▁poll	-7546
Quiere	-7547
▁Susan	-7548
▁bound	-7549
▁polvo	-7550
▁value	-7551
▁burned	-7552
▁credit	-7553
▁dulces	-7554
▁fresco	-7555
▁genial	-7556
▁medida	-7557
▁ofreci	-7558
▁salary	-7559
▁salvar	-7560
Although	-7561
▁abierto	-7562
▁answers	-7563
▁celular	-7564
▁consult	-7565
▁detener	-7566
▁estable	-7567
▁fortuna	-7568
▁musical	-7569
▁perform	-7570
▁saberlo	-7571
▁treated	-7572
▁deportes	-7573
▁nosotras	-7574
▁stranger	-7575
▁surround	-7576
▁costumbre	-7577
▁esfuerzos	-7578
▁represent	-7579
▁verdadera	-7580
▁profesores	-7581
1.	-7582
Ay	-7583
dy	-7584
Aqu	-7585
Deb	-7586
Let	-7587
ald	-7588
ium	-7589
vio	-7590
gage	-7591
itan	-7592
itor	-7593
rabe	-7594
▁Vis	-7595
▁ses	-7596
▁tos	-7597
orter	-7598
▁Corr	-7599
▁bell	-7600
▁dare	-7601
▁pian	-7602
▁puse	-7603
▁rude	-7604
▁tama	-7605
Please	-7606
▁flute	-7607
▁lindo	-7608
▁plata	-7609
▁Espera	-7610
▁Hungar	-7611
▁bottom	-7612
▁deeply	-7613
▁elecci	-7614
▁llaman	-7615
▁mierda	-7616
▁pobres	-7617
▁remain	-7618
▁Tuvimos	-7619
▁Twitter	-7620
▁aproxim	-7621
▁license	-7622
▁players	-7623
▁appeared	-7624
▁chaqueta	-7625
▁nacional	-7626
▁construir	-7627
▁furniture	-7628
▁introduce	-7629
▁televisor	-7630
NA	-7631
Not	-7632
isi	-7633
ote	-7634
uko	-7635
poca	-7636
urry	-7637
wise	-7638
▁Luc	-7639
▁ele	-7640
▁oso	-7641
adura	-7642
ators	-7643
rcito	-7644
▁None	-7645
▁chat	-7646
▁crec	-7647
▁hung	-7648
▁tail	-7649
isteis	-7650
▁Crist	-7651
▁Empez	-7652
▁armas	-7653
▁busca	-7654
▁chall	-7655
▁crash	-7656
▁deten	-7657
▁honey	-7658
▁ideal	-7659
▁level	-7660
▁refug	-7661
▁reina	-7662
▁socks	-7663
▁Guerra	-7664
▁actuar	-7665
▁denied	-7666
▁detuvo	-7667
▁lament	-7668
▁pedido	-7669
▁posici	-7670
▁unless	-7671
osamente	-7672
▁disgust	-7673
▁factory	-7674
▁levanta	-7675
▁receive	-7676
▁remedio	-7677
▁cuarenta	-7678
▁detalles	-7679
▁politics	-7680
▁presente	-7681
▁stronger	-7682
▁verduras	-7683
▁destroyed	-7684
▁historias	-7685
▁humanidad	-7686
▁difficulty	-7687
▁complicated	-7688
▁extremadamente	-7689
5.	-7690
oms	-7691
uye	-7692
zer	-7693
▁Bi	-7694
cing	-7695
iaba	-7696
ites	-7697
▁Apr	-7698
▁Dad	-7699
▁Mir	-7700
▁Mos	-7701
▁jar	-7702
▁pin	-7703
Antes	-7704
Sorry	-7705
antic	-7706
areci	-7707
iforn	-7708
manes	-7709
orrec	-7710
▁Sund	-7711
▁aliv	-7712
▁army	-7713
▁emot	-7714
▁jail	-7715
▁noon	-7716
▁rend	-7717
▁romp	-7718
▁viaj	-7719
▁Sabes	-7720
▁airpl	-7721
▁aspir	-7722
▁bolso	-7723
▁brave	-7724
▁corte	-7725
▁estup	-7726
▁explo	-7727
▁gasol	-7728
▁queen	-7729
ifornia	-7730
respond	-7731
▁Listen	-7732
▁apagar	-7733
▁ingres	-7734
▁repair	-7735
▁Sundays	-7736
▁coincid	-7737
▁crossed	-7738
▁decidir	-7739
▁escaped	-7740
▁falling	-7741
▁hacerse	-7742
▁manager	-7743
▁querido	-7744
▁respeto	-7745
▁bebiendo	-7746
▁descubri	-7747
▁contestar	-7748
▁mentiroso	-7749
▁California	-7750
▁importantes	-7751
uf	-7752
Ese	-7753
Som	-7754
alt	-7755
eas	-7756
uga	-7757
acci	-7758
word	-7759
▁Eat	-7760
▁pis	-7761
▁rot	-7762
anded	-7763
menes	-7764
ostro	-7765
▁chem	-7766
▁dama	-7767
▁inqu	-7768
▁pupp	-7769
▁push	-7770
▁rope	-7771
▁shit	-7772
▁suya	-7773
▁china	-7774
▁letra	-7775
▁Africa	-7776
▁absurd	-7777
▁agrada	-7778
▁atract	-7779
▁direct	-7780
▁guests	-7781
▁llueva	-7782
▁mirada	-7783
▁places	-7784
▁tantas	-7785
amientos	-7786
▁Podemos	-7787
▁biggest	-7788
▁calidad	-7789
▁efforts	-7790
▁ridicul	-7791
▁Preferir	-7792
▁attacked	-7793
▁construy	-7794
▁cubierta	-7795
▁recibido	-7796
▁remained	-7797
▁computers	-7798
▁conductor	-7799
▁interpret	-7800
▁political	-7801
▁abandonado	-7802
▁responsabilidad	-7803
▁$	-7804
fit	-7805
ache	-7806
ered	-7807
icci	-7808
iven	-7809
tano	-7810
tles	-7811
umul	-7812
▁Dos	-7813
▁Mam	-7814
▁cro	-7815
▁lap	-7816
▁lig	-7817
▁tig	-7818
▁toy	-7819
anges	-7820
ficos	-7821
iedad	-7822
itect	-7823
jarse	-7824
▁Asia	-7825
▁Open	-7826
▁anda	-7827
▁asom	-7828
▁carb	-7829
▁defe	-7830
▁exch	-7831
▁hole	-7832
▁huel	-7833
▁madr	-7834
▁rabb	-7835
▁repu	-7836
▁sois	-7837
▁vain	-7838
▁webs	-7839
▁Water	-7840
▁efect	-7841
▁guapo	-7842
▁indic	-7843
▁irrit	-7844
▁regla	-7845
▁rosas	-7846
▁seres	-7847
▁turno	-7848
▁Thomas	-7849
▁gather	-7850
▁quitar	-7851
▁simply	-7852
▁tantos	-7853
▁writes	-7854
▁admitir	-7855
▁afortun	-7856
▁smiling	-7857
▁tocando	-7858
ariamente	-7859
▁allergic	-7860
▁committed	-7861
▁dispuesto	-7862
▁enfermera	-7863
▁necesitar	-7864
▁saludable	-7865
▁respuestas	-7866
▁international	-7867
ky	-7868
zz	-7869
Pre	-7870
nam	-7871
▁Mo	-7872
..."	-7873
Pien	-7874
dame	-7875
onte	-7876
todo	-7877
uete	-7878
▁pup	-7879
▁saf	-7880
anced	-7881
iving	-7882
olded	-7883
tered	-7884
▁Brit	-7885
▁Dijo	-7886
▁Entr	-7887
▁actu	-7888
▁circ	-7889
▁deaf	-7890
▁diec	-7891
▁ileg	-7892
▁inev	-7893
▁riqu	-7894
▁sost	-7895
atiemp	-7896
engers	-7897
stairs	-7898
▁Rusia	-7899
▁Three	-7900
▁autos	-7901
▁bello	-7902
▁demos	-7903
▁drugs	-7904
▁false	-7905
▁force	-7906
▁poeta	-7907
▁retir	-7908
▁speed	-7909
▁virus	-7910
▁advert	-7911
▁assume	-7912
▁cities	-7913
▁desear	-7914
▁hambri	-7915
▁instit	-7916
▁resign	-7917
▁rostro	-7918
▁slight	-7919
plemente	-7920
▁involuc	-7921
▁maestra	-7922
▁nombres	-7923
▁obtener	-7924
▁produce	-7925
▁document	-7926
▁caballero	-7927
▁lentamente	-7928
▁yourselves	-7929
▁disappeared	-7930
2.	-7931
Esp	-7932
omo	-7933
ecci	-7934
iana	-7935
iron	-7936
udas	-7937
umen	-7938
▁Lev	-7939
▁nav	-7940
▁und	-7941
aries	-7942
ients	-7943
ndolo	-7944
▁Trat	-7945
▁atac	-7946
▁disf	-7947
▁ends	-7948
▁hunt	-7949
▁pity	-7950
▁poca	-7951
▁rued	-7952
▁vivi	-7953
Estaba	-7954
ancias	-7955
▁apres	-7956
▁calma	-7957
▁costa	-7958
▁envid	-7959
▁facts	-7960
▁obser	-7961
▁tells	-7962
▁triun	-7963
▁veint	-7964
Siempre	-7965
iamente	-7966
▁Berber	-7967
▁Russia	-7968
▁fallen	-7969
▁handed	-7970
▁highly	-7971
▁lesson	-7972
▁antigua	-7973
▁appears	-7974
▁armario	-7975
▁climbed	-7976
▁lugares	-7977
▁miembro	-7978
▁mundial	-7979
▁patatas	-7980
▁ponerse	-7981
▁suicide	-7982
▁confused	-7983
▁consists	-7984
▁preparar	-7985
▁recomend	-7986
▁Necesitas	-7987
▁gentleman	-7988
But	-7989
Say	-7990
ipa	-7991
leo	-7992
arla	-7993
bile	-7994
cera	-7995
elas	-7996
eler	-7997
ored	-7998
vest	-7999
▁Cor	-8000
▁tes	-8001
▁wis	-8002
Ellos	-8003
istro	-8004
▁June	-8005
▁Norm	-8006
▁ahor	-8007
▁bole	-8008
▁bull	-8009
▁carn	-8010
▁meti	-8011
▁thin	-8012
▁whis	-8013
▁assum	-8014
▁miser	-8015
▁patio	-8016
▁scene	-8017
▁shame	-8018
▁suave	-8019
▁upset	-8020
▁acceso	-8021
▁depart	-8022
▁agradec	-8023
▁atraves	-8024
▁consigo	-8025
▁excited	-8026
▁novelas	-8027
▁prepare	-8028
▁quality	-8029
▁seguido	-8030
▁cometido	-8031
▁religion	-8032
▁superior	-8033
▁agreement	-8034
▁funcionar	-8035
▁perfectly	-8036
▁appointment	-8037
▁investigaci	-8038
▁maravilloso	-8039
▁refrigerator	-8040
Cre	-8041
Mar	-8042
abe	-8043
amb	-8044
hor	-8045
phy	-8046
abor	-8047
bern	-8048
esit	-8049
iosa	-8050
iped	-8051
▁197	-8052
▁Hic	-8053
▁Hol	-8054
▁non	-8055
▁scr	-8056
▁tit	-8057
anged	-8058
ieved	-8059
imate	-8060
peare	-8061
▁Preg	-8062
▁avan	-8063
▁sort	-8064
▁subi	-8065
▁tomo	-8066
enario	-8067
ndwich	-8068
▁Catal	-8069
▁Desde	-8070
▁hesit	-8071
▁issue	-8072
▁legal	-8073
▁natur	-8074
▁negra	-8075
▁pondr	-8076
▁tembl	-8077
▁woods	-8078
▁Hablar	-8079
▁amount	-8080
▁cigarr	-8081
▁cintur	-8082
▁espero	-8083
▁interv	-8084
▁planta	-8085
▁plenty	-8086
▁constit	-8087
▁demostr	-8088
▁esperan	-8089
▁kilomet	-8090
▁razones	-8091
▁silence	-8092
▁suceder	-8093
▁termina	-8094
▁uniform	-8095
▁useless	-8096
▁comienza	-8097
▁dentista	-8098
▁desconoc	-8099
▁imaginar	-8100
▁invented	-8101
▁llegaron	-8102
▁conocerte	-8103
▁tranquilo	-8104
asa	-8105
bum	-8106
ypt	-8107
▁Fo	-8108
anch	-8109
athe	-8110
bled	-8111
eted	-8112
isco	-8113
ogle	-8114
oted	-8115
para	-8116
ucci	-8117
▁abe	-8118
▁fox	-8119
Hello	-8120
Today	-8121
barde	-8122
izing	-8123
nolog	-8124
▁Esas	-8125
▁bend	-8126
▁bere	-8127
▁colg	-8128
▁coma	-8129
▁crey	-8130
▁cuyo	-8131
▁gros	-8132
▁laws	-8133
▁miel	-8134
▁solu	-8135
▁barba	-8136
▁bomba	-8137
▁bordo	-8138
▁cheek	-8139
▁datos	-8140
▁encou	-8141
▁notas	-8142
▁odian	-8143
▁razon	-8144
▁sabor	-8145
▁sings	-8146
▁tough	-8147
▁towel	-8148
Tenemos	-8149
▁Arabic	-8150
▁Termin	-8151
▁aceite	-8152
▁chiste	-8153
▁conten	-8154
▁excuse	-8155
▁horses	-8156
▁listos	-8157
▁motivo	-8158
▁pesado	-8159
▁sombra	-8160
ironment	-8161
▁aspecto	-8162
▁ayudara	-8163
▁ceremon	-8164
▁fuertes	-8165
▁service	-8166
akespeare	-8167
▁justicia	-8168
▁naranjas	-8169
▁quedaron	-8170
▁ayudarnos	-8171
▁bromeando	-8172
▁despertar	-8173
▁fantasmas	-8174
▁accomplish	-8175
▁photograph	-8176
▁escondiendo	-8177
:30	-8178
ows	-8179
seg	-8180
uja	-8181
▁Fe	-8182
emes	-8183
▁500	-8184
▁Ver	-8185
▁pig	-8186
▁psy	-8187
alent	-8188
blica	-8189
ctica	-8190
ption	-8191
terna	-8192
▁Qued	-8193
▁aves	-8194
▁cach	-8195
▁copy	-8196
▁file	-8197
▁loca	-8198
▁viva	-8199
▁zona	-8200
▁Recib	-8201
▁Women	-8202
▁altos	-8203
▁avent	-8204
▁badly	-8205
▁banda	-8206
▁candy	-8207
▁drove	-8208
▁elder	-8209
▁hated	-8210
▁illeg	-8211
▁indif	-8212
▁junio	-8213
▁moned	-8214
▁solas	-8215
▁action	-8216
▁arries	-8217
▁calles	-8218
▁cierta	-8219
▁colina	-8220
▁confes	-8221
▁desert	-8222
▁eleven	-8223
▁granja	-8224
▁mandar	-8225
▁ocurre	-8226
▁salida	-8227
▁toalla	-8228
▁antiguo	-8229
▁billete	-8230
▁process	-8231
▁putting	-8232
▁suspect	-8233
▁tallest	-8234
▁totally	-8235
▁tuvimos	-8236
▁vuelvas	-8237
▁Entonces	-8238
▁devolver	-8239
▁ocupados	-8240
▁poniendo	-8241
▁software	-8242
▁Christian	-8243
▁americano	-8244
▁brillante	-8245
▁recognize	-8246
▁succeeded	-8247
▁correspond	-8248
▁Simplemente	-8249
!�	-8250
ika	-8251
pir	-8252
str	-8253
uir	-8254
▁Cr	-8255
Pens	-8256
erry	-8257
fica	-8258
jate	-8259
melo	-8260
urar	-8261
▁Amo	-8262
▁Sue	-8263
▁alo	-8264
▁vit	-8265
anted	-8266
entud	-8267
▁Char	-8268
▁Dice	-8269
▁Taro	-8270
▁esco	-8271
▁fest	-8272
▁imit	-8273
▁obst	-8274
▁sill	-8275
▁surf	-8276
▁tool	-8277
ential	-8278
itario	-8279
▁Emily	-8280
▁Franc	-8281
▁Llegu	-8282
▁brief	-8283
▁durmi	-8284
▁minor	-8285
▁thick	-8286
▁whist	-8287
uventud	-8288
▁aument	-8289
▁bebida	-8290
▁cierra	-8291
▁congel	-8292
▁entera	-8293
▁estilo	-8294
▁fright	-8295
▁humans	-8296
▁llevan	-8297
▁metros	-8298
▁millas	-8299
▁online	-8300
▁pintar	-8301
▁subway	-8302
▁warned	-8303
▁British	-8304
▁Perhaps	-8305
▁Smoking	-8306
▁complex	-8307
▁contrat	-8308
▁curious	-8309
▁depress	-8310
▁progres	-8311
▁propios	-8312
▁survive	-8313
ristopher	-8314
▁airplane	-8315
▁extraord	-8316
▁insectos	-8317
▁mentiras	-8318
▁traveled	-8319
▁continued	-8320
▁cuidadoso	-8321
▁descansar	-8322
▁pasatiemp	-8323
▁calcetines	-8324
▁literatura	-8325
▁preparando	-8326
▁encontramos	-8327
▁environment	-8328
▁estadounidenses	-8329
ID	-8330
Of	-8331
ze	-8332
.�"	-8333
iew	-8334
ota	-8335
ecut	-8336
onos	-8337
tate	-8338
▁Meg	-8339
▁bul	-8340
▁tum	-8341
asons	-8342
earch	-8343
estre	-8344
idays	-8345
ilado	-8346
irrel	-8347
izada	-8348
yeron	-8349
▁dust	-8350
▁inex	-8351
▁mass	-8352
▁nons	-8353
▁olor	-8354
▁task	-8355
▁Lleva	-8356
▁Parec	-8357
▁Sigue	-8358
▁anger	-8359
▁apunt	-8360
▁breve	-8361
▁carga	-8362
▁chill	-8363
▁leyes	-8364
▁lower	-8365
▁milag	-8366
▁musul	-8367
▁ricos	-8368
▁salad	-8369
▁salva	-8370
▁sheep	-8371
▁torre	-8372
▁turns	-8373
▁Trabaj	-8374
▁buried	-8375
▁colors	-8376
▁escena	-8377
▁griego	-8378
▁pelear	-8379
▁pulled	-8380
▁Trabajo	-8381
▁dentist	-8382
▁economy	-8383
▁hacemos	-8384
▁paquete	-8385
▁reasons	-8386
▁anterior	-8387
▁changing	-8388
▁invitado	-8389
▁juventud	-8390
▁bilingual	-8391
▁escuchado	-8392
▁traveling	-8393
▁desapareci	-8394
▁sospechoso	-8395
▁understands	-8396
8.	-8397
nta	-8398
▁11	-8399
▁US	-8400
gram	-8401
lero	-8402
plom	-8403
▁feo	-8404
▁hem	-8405
▁jer	-8406
▁ove	-8407
▁pav	-8408
First	-8409
ndote	-8410
osaur	-8411
usual	-8412
▁Then	-8413
▁With	-8414
▁cose	-8415
▁obey	-8416
▁pure	-8417
▁spar	-8418
Before	-8419
▁Egypt	-8420
▁acaso	-8421
▁apret	-8422
▁arrog	-8423
▁euros	-8424
▁falda	-8425
▁forty	-8426
▁locos	-8427
▁monte	-8428
▁ocean	-8429
▁suger	-8430
▁alcanz	-8431
▁amigas	-8432
▁battle	-8433
▁conejo	-8434
▁espaci	-8435
▁espect	-8436
▁fridge	-8437
▁habido	-8438
▁limpia	-8439
▁lograr	-8440
▁repent	-8441
▁secund	-8442
ucciones	-8443
▁Neither	-8444
▁actitud	-8445
▁citizen	-8446
▁comprom	-8447
▁details	-8448
▁further	-8449
▁knowing	-8450
▁pareces	-8451
▁percent	-8452
▁puertas	-8453
▁salario	-8454
▁seguros	-8455
▁smaller	-8456
▁someday	-8457
▁tratado	-8458
▁trusted	-8459
▁vistazo	-8460
Realmente	-8461
▁contiene	-8462
▁opposite	-8463
▁quedamos	-8464
▁wherever	-8465
▁passengers	-8466
▁departamento	-8467
▁internacional	-8468
Hi	-8469
oe	-8470
ym	-8471
azo	-8472
▁Mt	-8473
▁Po	-8474
Cada	-8475
Dios	-8476
here	-8477
iber	-8478
idor	-8479
ring	-8480
sped	-8481
ulos	-8482
uman	-8483
vard	-8484
▁Dem	-8485
▁Fad	-8486
▁Min	-8487
▁sne	-8488
adays	-8489
antar	-8490
apers	-8491
asing	-8492
enced	-8493
inary	-8494
known	-8495
octor	-8496
▁Kobe	-8497
▁Rima	-8498
▁Segu	-8499
▁Send	-8500
▁Swed	-8501
▁brit	-8502
▁conc	-8503
▁conj	-8504
▁dign	-8505
▁gira	-8506
▁lanz	-8507
▁sink	-8508
▁usan	-8509
Hablas	-8510
ativas	-8511
emesio	-8512
▁Aquel	-8513
▁Black	-8514
▁Sorry	-8515
▁domin	-8516
▁funci	-8517
▁papas	-8518
▁swear	-8519
▁sword	-8520
▁trozo	-8521
▁vidas	-8522
▁votar	-8523
▁Berlin	-8524
▁hambur	-8525
▁incred	-8526
▁larger	-8527
▁novels	-8528
▁orejas	-8529
▁photos	-8530
▁recono	-8531
▁Estaban	-8532
▁Harvard	-8533
▁andando	-8534
▁blancas	-8535
▁contado	-8536
▁juguete	-8537
▁becoming	-8538
▁distract	-8539
▁election	-8540
▁francesa	-8541
▁hubieras	-8542
▁incorrec	-8543
▁pusieron	-8544
▁tecnolog	-8545
▁tuvieron	-8546
▁asesinato	-8547
▁disculpar	-8548
▁emergency	-8549
▁entendido	-8550
▁fundament	-8551
▁pasajeros	-8552
▁elecciones	-8553
▁Shakespeare	-8554
▁understanding	-8555
acy	-8556
cup	-8557
raw	-8558
van	-8559
▁Of	-8560
""?"	-8561
Your	-8562
icip	-8563
lesc	-8564
logo	-8565
oked	-8566
▁Jan	-8567
▁Med	-8568
▁Nac	-8569
▁gig	-8570
While	-8571
alada	-8572
guida	-8573
mates	-8574
rtelo	-8575
usias	-8576
▁Alex	-8577
▁Part	-8578
▁barr	-8579
▁bote	-8580
▁chap	-8581
▁emba	-8582
▁lion	-8583
▁loss	-8584
▁paga	-8585
▁sque	-8586
ctores	-8587
uestos	-8588
▁Fadil	-8589
▁admin	-8590
▁aplic	-8591
▁dando	-8592
▁enorm	-8593
▁excit	-8594
▁hopes	-8595
▁parts	-8596
▁reads	-8597
▁sells	-8598
▁shows	-8599
▁sonre	-8600
▁Mayuko	-8601
▁assist	-8602
▁ataque	-8603
▁azules	-8604
▁ciento	-8605
▁cooked	-8606
▁equipa	-8607
▁largas	-8608
▁montar	-8609
▁puesta	-8610
▁rarely	-8611
▁screen	-8612
▁solved	-8613
▁strang	-8614
▁vengas	-8615
▁Mundial	-8616
▁acusado	-8617
▁anciana	-8618
▁average	-8619
▁hicimos	-8620
▁hubiese	-8621
▁journal	-8622
▁muertos	-8623
▁ocultar	-8624
▁opening	-8625
▁remains	-8626
▁snowing	-8627
▁volando	-8628
▁accommod	-8629
▁contract	-8630
▁evidence	-8631
▁invitaci	-8632
▁mistaken	-8633
▁producto	-8634
▁victoria	-8635
▁imaginaci	-8636
▁impuestos	-8637
▁productos	-8638
▁universal	-8639
▁accidentes	-8640
▁kilometers	-8641
▁levantarse	-8642
▁permission	-8643
▁preguntaba	-8644
▁comentarios	-8645
▁maravillosa	-8646
uz	-8647
chi	-8648
udi	-8649
▁Ca	-8650
ezas	-8651
neas	-8652
oner	-8653
same	-8654
sima	-8655
▁196	-8656
▁Vay	-8657
▁cae	-8658
▁hip	-8659
▁mix	-8660
▁rin	-8661
▁tat	-8662
▁tim	-8663
▁unh	-8664
ntame	-8665
onsci	-8666
ounds	-8667
tiles	-8668
uelos	-8669
▁Musl	-8670
▁disp	-8671
▁menu	-8672
▁nuts	-8673
▁plat	-8674
▁quiz	-8675
▁ways	-8676
▁wide	-8677
▁blank	-8678
▁diste	-8679
▁doors	-8680
▁falle	-8681
▁lecci	-8682
▁lento	-8683
▁owner	-8684
▁reply	-8685
▁sched	-8686
▁screw	-8687
▁tempt	-8688
▁trick	-8689
▁verla	-8690
▁walks	-8691
▁Carlos	-8692
▁alegre	-8693
▁border	-8694
▁cambia	-8695
▁costar	-8696
▁hombro	-8697
▁hoping	-8698
▁joking	-8699
▁polite	-8700
▁square	-8701
▁stands	-8702
▁sueldo	-8703
▁urgent	-8704
▁advance	-8705
▁ausente	-8706
▁captain	-8707
▁challen	-8708
▁intento	-8709
▁tickets	-8710
▁accompan	-8711
▁contrato	-8712
▁hablante	-8713
▁password	-8714
▁pleasant	-8715
▁progress	-8716
▁requiere	-8717
▁valiente	-8718
▁conocemos	-8719
▁enseguida	-8720
▁exhausted	-8721
▁recommend	-8722
▁disponible	-8723
▁literature	-8724
▁perfectamente	-8725
"".	-8726
Fue	-8727
cks	-8728
iet	-8729
ips	-8730
▁Ta	-8731
▁Us	-8732
▁iP	-8733
Sabe	-8734
abet	-8735
anes	-8736
cesa	-8737
ecta	-8738
ield	-8739
oven	-8740
stit	-8741
tulo	-8742
unte	-8743
▁Cho	-8744
▁Cla	-8745
▁Jew	-8746
▁Sam	-8747
▁afe	-8748
asion	-8749
iosos	-8750
jante	-8751
ntale	-8752
▁Cats	-8753
▁Habr	-8754
▁Tues	-8755
▁blew	-8756
▁flew	-8757
▁sean	-8758
ateful	-8759
orrect	-8760
▁Colom	-8761
▁Music	-8762
▁Speak	-8763
▁Think	-8764
▁awful	-8765
▁beard	-8766
▁colon	-8767
▁noble	-8768
▁robar	-8769
▁rojas	-8770
▁unlik	-8771
iciales	-8772
▁Transl	-8773
▁cometi	-8774
▁lately	-8775
▁martes	-8776
▁repeat	-8777
▁supper	-8778
▁vienen	-8779
▁Bienven	-8780
▁aquello	-8781
▁bereber	-8782
▁casados	-8783
▁disfraz	-8784
▁muebles	-8785
▁muestra	-8786
▁nadando	-8787
▁nearest	-8788
▁passion	-8789
▁practic	-8790
▁towards	-8791
▁accustom	-8792
▁clientes	-8793
▁describe	-8794
▁encantar	-8795
▁entregar	-8796
▁equipaje	-8797
▁escalera	-8798
▁infancia	-8799
▁musician	-8800
▁sencillo	-8801
▁survived	-8802
▁continuar	-8803
▁orgullosa	-8804
▁recognized	-8805
▁preguntarle	-8806
ortunadamente	-8807
si	-8808
,""	-8809
glo	-8810
▁1.	-8811
mido	-8812
pany	-8813
unch	-8814
vate	-8815
▁195	-8816
▁Atl	-8817
▁Nep	-8818
▁voc	-8819
Could	-8820
ading	-8821
cycle	-8822
icles	-8823
inaci	-8824
itado	-8825
llate	-8826
moslo	-8827
▁Cond	-8828
▁Luna	-8829
▁Yumi	-8830
▁ahog	-8831
▁falt	-8832
▁fiel	-8833
▁guar	-8834
▁okay	-8835
▁vano	-8836
inario	-8837
▁Close	-8838
▁admir	-8839
▁aprob	-8840
▁cabra	-8841
▁colec	-8842
▁delay	-8843
▁disgu	-8844
▁hagan	-8845
▁motiv	-8846
▁sabio	-8847
▁sepas	-8848
▁shelf	-8849
▁veter	-8850
▁Volver	-8851
▁arranc	-8852
▁bucket	-8853
▁confid	-8854
▁diecis	-8855
▁drives	-8856
▁espada	-8857
▁fought	-8858
▁lasted	-8859
▁meters	-8860
▁moneda	-8861
▁punish	-8862
▁puntos	-8863
▁sexual	-8864
▁toques	-8865
▁vienes	-8866
▁adolesc	-8867
▁batalla	-8868
▁breathe	-8869
▁capaces	-8870
▁climate	-8871
▁divorci	-8872
▁fluidez	-8873
▁illegal	-8874
▁oranges	-8875
▁separat	-8876
▁website	-8877
▁winning	-8878
▁caracter	-8879
▁convenci	-8880
▁desierto	-8881
▁elephant	-8882
▁llamarme	-8883
▁saliendo	-8884
▁shoulder	-8885
▁Argentina	-8886
▁disculpas	-8887
▁solamente	-8888
▁transport	-8889
▁equivocada	-8890
▁invitation	-8891
▁motorcycle	-8892
▁dificultades	-8893
20	-8894
__	-8895
hu	-8896
ux	-8897
agr	-8898
bur	-8899
ker	-8900
via	-8901
Just	-8902
Look	-8903
Once	-8904
ezca	-8905
ivas	-8906
osen	-8907
trib	-8908
vely	-8909
▁Act	-8910
▁Mal	-8911
▁anx	-8912
▁cav	-8913
▁ron	-8914
gging	-8915
inter	-8916
uelto	-8917
using	-8918
▁Vive	-8919
▁anti	-8920
▁bebi	-8921
▁dile	-8922
▁elem	-8923
▁euro	-8924
▁fant	-8925
▁lobo	-8926
▁mons	-8927
▁poes	-8928
▁seme	-8929
▁trae	-8930
▁volc	-8931
▁zana	-8932
Thanks	-8933
elling	-8934
encial	-8935
ificar	-8936
▁South	-8937
▁apell	-8938
▁calur	-8939
▁fecha	-8940
▁genio	-8941
▁lemon	-8942
▁minti	-8943
▁muere	-8944
▁naive	-8945
▁roses	-8946
▁shape	-8947
▁tales	-8948
▁trago	-8949
▁Google	-8950
▁closer	-8951
▁descon	-8952
▁ghosts	-8953
▁horror	-8954
▁piezas	-8955
▁refuse	-8956
▁symbol	-8957
▁violin	-8958
Disculpe	-8959
▁achieve	-8960
▁agujero	-8961
▁aprobar	-8962
▁assumed	-8963
▁asuntos	-8964
▁curtain	-8965
▁dreamed	-8966
▁elected	-8967
▁fashion	-8968
▁podamos	-8969
▁suppose	-8970
▁various	-8971
▁amarillo	-8972
▁arrepent	-8973
▁audience	-8974
▁contrase	-8975
▁elefante	-8976
▁thoughts	-8977
▁unlikely	-8978
▁abilities	-8979
▁delicioso	-8980
▁direction	-8981
▁intention	-8982
▁jugadores	-8983
▁suggested	-8984
▁eventually	-8985
▁inevitable	-8986
▁prohibited	-8987
▁ridiculous	-8988
▁successful	-8989
▁suspicious	-8990
▁inteligentes	-8991
▁instrucciones	-8992
Ll	-8993
Esc	-8994
ako	-8995
bly	-8996
cop	-8997
mes	-8998
pro	-8999
▁Bl	-9000
▁Ra	-9001
Last	-9002
izes	-9003
ulas	-9004
▁App	-9005
▁Dar	-9006
▁Pic	-9007
▁aim	-9008
▁cic	-9009
▁fog	-9010
▁nap	-9011
enten	-9012
ginas	-9013
stima	-9014
thern	-9015
▁Dudo	-9016
▁Imag	-9017
▁bald	-9018
▁decl	-9019
▁dial	-9020
▁elim	-9021
▁laid	-9022
▁peel	-9023
▁pink	-9024
▁rely	-9025
▁shad	-9026
▁sofa	-9027
iertos	-9028
ighter	-9029
▁apete	-9030
▁based	-9031
▁burst	-9032
▁chose	-9033
▁digan	-9034
▁lados	-9035
▁shock	-9036
▁sonar	-9037
▁style	-9038
▁trece	-9039
▁wheel	-9040
ethoven	-9041
▁aboard	-9042
▁alarma	-9043
▁anyway	-9044
▁asombr	-9045
▁cepill	-9046
▁coward	-9047
▁derram	-9048
▁empeor	-9049
▁favour	-9050
▁genius	-9051
▁infant	-9052
▁mental	-9053
▁sleeps	-9054
▁strict	-9055
▁aprendi	-9056
▁asistir	-9057
▁cercana	-9058
▁cleaned	-9059
▁conduce	-9060
▁decirlo	-9061
▁haberse	-9062
▁invitar	-9063
▁piedras	-9064
▁propias	-9065
▁pudimos	-9066
▁riqueza	-9067
▁volunte	-9068
▁annoying	-9069
▁cleaning	-9070
▁crossing	-9071
▁extrater	-9072
▁gracioso	-9073
▁grateful	-9074
▁interpre	-9075
▁kindness	-9076
▁levantar	-9077
▁perdonar	-9078
▁pressure	-9079
▁princesa	-9080
▁research	-9081
▁squirrel	-9082
▁decepcion	-9083
▁demasiada	-9084
▁intentado	-9085
▁preferido	-9086
▁curiosidad	-9087
▁importance	-9088
▁movimiento	-9089
▁pasatiempo	-9090
▁conferencia	-9091
▁responsibility	-9092
4.	-9093
Am	-9094
Ar	-9095
cla	-9096
cta	-9097
cut	-9098
isy	-9099
nel	-9100
uly	-9101
acia	-9102
fied	-9103
icer	-9104
lida	-9105
onas	-9106
oper	-9107
pect	-9108
ritu	-9109
writ	-9110
▁Bre	-9111
▁Cer	-9112
▁Pat	-9113
▁jab	-9114
Sayib	-9115
meros	-9116
raste	-9117
right	-9118
uesto	-9119
wards	-9120
▁Toki	-9121
▁abur	-9122
▁copi	-9123
▁exit	-9124
▁gate	-9125
▁goat	-9126
▁pesa	-9127
▁rate	-9128
▁vaca	-9129
rowned	-9130
▁Bible	-9131
▁Camin	-9132
▁Grand	-9133
▁Jesus	-9134
▁Money	-9135
▁Shall	-9136
▁adapt	-9137
▁afect	-9138
▁apply	-9139
▁atras	-9140
▁campa	-9141
▁comas	-9142
▁creci	-9143
▁dirig	-9144
▁dudas	-9145
▁durar	-9146
▁flies	-9147
▁indis	-9148
▁marip	-9149
▁rapid	-9150
▁youth	-9151
ificaci	-9152
▁Choose	-9153
▁School	-9154
▁compra	-9155
▁fuente	-9156
▁prices	-9157
▁propor	-9158
▁siesta	-9159
▁suelen	-9160
▁territ	-9161
Everyone	-9162
▁Intenta	-9163
▁Pensaba	-9164
▁Sabemos	-9165
▁comport	-9166
▁drawing	-9167
▁lectura	-9168
▁located	-9169
▁protest	-9170
▁witness	-9171
▁contains	-9172
▁ensalada	-9173
▁exchange	-9174
▁hermosas	-9175
▁holidays	-9176
▁misterio	-9177
▁sacrific	-9178
▁visiting	-9179
▁Beethoven	-9180
▁compartir	-9181
▁constante	-9182
▁documento	-9183
▁reconocer	-9184
▁accustomed	-9185
▁agradecido	-9186
▁basketball	-9187
▁convencido	-9188
▁serpientes	-9189
▁electricity	-9190
Fin	-9191
des	-9192
eco	-9193
iti	-9194
jud	-9195
osh	-9196
▁Je	-9197
alde	-9198
berg	-9199
coln	-9200
enso	-9201
ibly	-9202
inna	-9203
okka	-9204
rael	-9205
rase	-9206
stos	-9207
▁Bas	-9208
▁Dur	-9209
▁Kab	-9210
▁jew	-9211
▁raw	-9212
▁uns	-9213
Habla	-9214
actor	-9215
arily	-9216
cepto	-9217
genes	-9218
ierte	-9219
itivo	-9220
recio	-9221
udden	-9222
▁Disc	-9223
▁Judy	-9224
▁Scot	-9225
▁adiv	-9226
▁alph	-9227
▁amas	-9228
▁apla	-9229
▁echo	-9230
▁fron	-9231
▁jobs	-9232
▁quar	-9233
▁spot	-9234
▁trap	-9235
▁unfa	-9236
Tienen	-9237
asteis	-9238
celona	-9239
▁Conoc	-9240
▁North	-9241
▁Quien	-9242
▁alfom	-9243
▁campe	-9244
▁devil	-9245
▁flood	-9246
▁grown	-9247
▁malos	-9248
▁nevar	-9249
▁pelea	-9250
▁pluma	-9251
▁tipos	-9252
▁uncom	-9253
▁usado	-9254
▁vacas	-9255
arently	-9256
okkaido	-9257
▁Picass	-9258
▁calent	-9259
▁colour	-9260
▁conect	-9261
▁frutas	-9262
▁impaci	-9263
▁kicked	-9264
▁oscure	-9265
▁pasear	-9266
▁unable	-9267
viamente	-9268
▁Lincoln	-9269
▁Taninna	-9270
▁Tuesday	-9271
▁alcalde	-9272
▁ancient	-9273
▁cambios	-9274
▁gerente	-9275
▁gustado	-9276
▁holding	-9277
▁mystery	-9278
▁nuclear	-9279
▁prision	-9280
▁registr	-9281
▁scratch	-9282
▁streets	-9283
▁urgente	-9284
▁attitude	-9285
▁betrayed	-9286
▁esperado	-9287
▁fluently	-9288
▁hablamos	-9289
▁increase	-9290
▁nonsense	-9291
▁notebook	-9292
▁perfecta	-9293
▁powerful	-9294
▁presence	-9295
▁repaired	-9296
▁trabajan	-9297
▁traicion	-9298
▁Barcelona	-9299
▁desarroll	-9300
▁attractive	-9301
▁extranjera	-9302
▁surrounded	-9303
▁accompanied	-9304
▁independent	-9305
▁electricidad	-9306
?!	-9307
Ves	-9308
ayo	-9309
moh	-9310
Solo	-9311
Tras	-9312
amar	-9313
asts	-9314
icha	-9315
igor	-9316
roat	-9317
▁Few	-9318
▁led	-9319
▁vea	-9320
nicas	-9321
uncia	-9322
verty	-9323
▁Bibl	-9324
▁Cook	-9325
▁Lucy	-9326
▁bebo	-9327
▁exag	-9328
▁hoja	-9329
▁hues	-9330
▁humo	-9331
▁orde	-9332
▁regi	-9333
▁sano	-9334
antado	-9335
▁Hazlo	-9336
▁Santa	-9337
▁added	-9338
▁almoh	-9339
▁apoyo	-9340
▁ditch	-9341
▁falso	-9342
▁fines	-9343
▁frecu	-9344
▁freez	-9345
▁frequ	-9346
▁llame	-9347
▁medit	-9348
▁pesad	-9349
▁straw	-9350
▁vivos	-9351
glasses	-9352
restres	-9353
uddenly	-9354
uestras	-9355
▁altura	-9356
▁causes	-9357
▁dejara	-9358
▁female	-9359
▁gritar	-9360
▁gustas	-9361
▁hierro	-9362
▁impact	-9363
▁orders	-9364
▁provid	-9365
▁robbed	-9366
▁spirit	-9367
▁stones	-9368
standing	-9369
▁Incluso	-9370
▁aumento	-9371
▁develop	-9372
▁elegido	-9373
▁escucho	-9374
▁fuerzas	-9375
▁granted	-9376
▁haberle	-9377
▁insects	-9378
▁knocked	-9379
▁mantuvo	-9380
▁reprodu	-9381
▁smarter	-9382
▁tablero	-9383
▁ventaja	-9384
▁Colombia	-9385
▁Nuestros	-9386
▁acciones	-9387
▁adorable	-9388
▁atrapado	-9389
▁deserves	-9390
▁llegamos	-9391
▁mosquito	-9392
▁prefiero	-9393
▁register	-9394
▁Brazilian	-9395
▁cigarette	-9396
▁appearance	-9397
▁newspapers	-9398
▁Normalmente	-9399
▁avergonzado	-9400
▁medicamento	-9401
▁pensamientos	-9402
▁aproximadamente	-9403
ki	-9404
His	-9405
May	-9406
bid	-9407
exp	-9408
far	-9409
iel	-9410
lev	-9411
rte	-9412
▁24	-9413
atul	-9414
aven	-9415
enth	-9416
icto	-9417
ieto	-9418
iler	-9419
olic	-9420
pens	-9421
rden	-9422
▁Abr	-9423
▁Adm	-9424
▁apl	-9425
▁dil	-9426
▁nin	-9427
▁pim	-9428
ouder	-9429
▁Cent	-9430
▁Desc	-9431
▁Pona	-9432
▁atas	-9433
▁cima	-9434
▁core	-9435
▁data	-9436
▁marc	-9437
▁masa	-9438
▁pand	-9439
▁reve	-9440
�."""	-9441
isible	-9442
trucci	-9443
▁Jones	-9444
▁Ponte	-9445
▁Roman	-9446
▁bater	-9447
▁bench	-9448
▁cerdo	-9449
▁flash	-9450
▁lines	-9451
▁manif	-9452
▁pasta	-9453
▁pecho	-9454
▁poems	-9455
▁punta	-9456
▁skill	-9457
▁terms	-9458
▁trato	-9459
▁admiti	-9460
▁barrio	-9461
▁bitter	-9462
▁debate	-9463
▁descar	-9464
▁estall	-9465
▁filoso	-9466
▁gloves	-9467
▁ilegal	-9468
▁laptop	-9469
▁locura	-9470
▁rabbit	-9471
▁servir	-9472
▁switch	-9473
▁wishes	-9474
▁Picasso	-9475
▁condici	-9476
▁contrad	-9477
▁cuentas	-9478
▁current	-9479
▁haremos	-9480
▁prevent	-9481
▁removed	-9482
▁resulta	-9483
▁tentaci	-9484
▁Hokkaido	-9485
▁attended	-9486
▁borrowed	-9487
▁cansados	-9488
▁dinosaur	-9489
▁fantasma	-9490
▁momentos	-9491
▁stealing	-9492
▁talented	-9493
▁President	-9494
▁enamorada	-9495
▁tradition	-9496
▁volviendo	-9497
▁dificultad	-9498
▁emergencia	-9499
▁intentarlo	-9500
▁participar	-9501
▁embarrassed	-9502
▁instructions	-9503
ns	-9504
yl	-9505
Esa	-9506
xic	-9507
▁Da	-9508
▁Oh	-9509
esas	-9510
soci	-9511
▁Big	-9512
▁Lim	-9513
▁adj	-9514
▁fij	-9515
▁gim	-9516
▁spo	-9517
arias	-9518
pical	-9519
▁Mark	-9520
▁Shut	-9521
▁Sing	-9522
▁bush	-9523
▁debi	-9524
▁drag	-9525
▁drew	-9526
▁petr	-9527
▁pros	-9528
▁rind	-9529
▁risa	-9530
▁teme	-9531
▁trib	-9532
▁wins	-9533
▁wolf	-9534
▁worn	-9535
▁zool	-9536
onente	-9537
tained	-9538
▁Drink	-9539
▁abraz	-9540
▁atrop	-9541
▁cares	-9542
▁conmo	-9543
▁couch	-9544
▁moral	-9545
▁noisy	-9546
▁puppy	-9547
▁south	-9548
▁strug	-9549
▁sucia	-9550
▁truly	-9551
uvieron	-9552
▁Biblia	-9553
▁Cierra	-9554
▁acting	-9555
▁aliens	-9556
▁aparte	-9557
▁desire	-9558
▁hidden	-9559
▁inclin	-9560
▁ingred	-9561
▁juegan	-9562
▁limpio	-9563
▁polaco	-9564
▁ruined	-9565
▁Vivimos	-9566
▁deliver	-9567
▁growing	-9568
▁guantes	-9569
▁kidding	-9570
▁bleeding	-9571
▁deseando	-9572
▁despreci	-9573
▁efectivo	-9574
▁pantalla	-9575
▁princess	-9576
▁punished	-9577
▁Hungarian	-9578
▁accompany	-9579
▁alimentos	-9580
▁concerned	-9581
▁despierta	-9582
▁escenario	-9583
▁neighbour	-9584
▁prevented	-9585
▁definitely	-9586
▁technology	-9587
▁considerado	-9588
▁imagination	-9589
▁politicians	-9590
▁accomplished	-9591
▁enfermedades	-9592
▁consciousness	-9593
ws	-9594
Les	-9595
fto	-9596
mps	-9597
ums	-9598
Vete	-9599
ablo	-9600
ague	-9601
ateg	-9602
bian	-9603
moda	-9604
name	-9605
oned	-9606
▁Kar	-9607
▁caj	-9608
▁huy	-9609
blado	-9610
ndole	-9611
rgico	-9612
▁Aseg	-9613
▁Hizo	-9614
▁Tend	-9615
▁Turk	-9616
▁agot	-9617
▁dios	-9618
▁duck	-9619
▁fila	-9620
▁hers	-9621
▁lamp	-9622
▁mono	-9623
▁ofre	-9624
▁ours	-9625
▁role	-9626
▁sail	-9627
▁sore	-9628
atorio	-9629
cional	-9630
sticas	-9631
▁April	-9632
▁Comen	-9633
▁Vimos	-9634
▁abril	-9635
▁acted	-9636
▁baile	-9637
▁bears	-9638
▁brand	-9639
▁camar	-9640
▁chest	-9641
▁desea	-9642
▁estat	-9643
▁kilos	-9644
▁snake	-9645
Ustedes	-9646
oncesto	-9647
▁accoun	-9648
▁beings	-9649
▁deprim	-9650
▁desmay	-9651
▁gained	-9652
▁handle	-9653
▁pierde	-9654
▁refres	-9655
▁skiing	-9656
▁tareas	-9657
▁uncomf	-9658
▁vengan	-9659
▁vernos	-9660
▁arguing	-9661
▁burning	-9662
▁cercano	-9663
▁cerrado	-9664
▁cobarde	-9665
▁dejaron	-9666
▁disturb	-9667
▁guardar	-9668
▁medical	-9669
▁physics	-9670
▁pobreza	-9671
▁repetir	-9672
▁selling	-9673
▁shorter	-9674
▁alphabet	-9675
▁enfadada	-9676
▁interior	-9677
▁interrup	-9678
▁llamando	-9679
▁occurred	-9680
▁speakers	-9681
▁ciudadano	-9682
▁depressed	-9683
▁disfrutar	-9684
▁estudiado	-9685
▁impressed	-9686
▁serpiente	-9687
▁suffering	-9688
▁baloncesto	-9689
▁claramente	-9690
▁comentario	-9691
▁complicado	-9692
▁politician	-9693
▁remembered	-9694
▁distinguish	-9695
▁encontraron	-9696
▁possibility	-9697
▁uncomfortable	-9698
afortunadamente	-9699
Fu	-9700
Par	-9701
ham	-9702
rag	-9703
tea	-9704
uvi	-9705
▁Ed	-9706
Ayer	-9707
ader	-9708
gunt	-9709
inct	-9710
lies	-9711
rita	-9712
tage	-9713
udos	-9714
zoso	-9715
▁Aug	-9716
▁Din	-9717
▁Gal	-9718
▁adi	-9719
▁gir	-9720
▁sen	-9721
▁tru	-9722
▁vul	-9723
jando	-9724
onent	-9725
orean	-9726
oured	-9727
uable	-9728
▁Gran	-9729
▁Tres	-9730
▁acci	-9731
▁ampl	-9732
▁banc	-9733
▁bras	-9734
▁carp	-9735
▁pray	-9736
▁quis	-9737
▁rega	-9738
▁sake	-9739
▁zumo	-9740
acters	-9741
atures	-9742
▁After	-9743
▁cheer	-9744
▁coloc	-9745
▁crear	-9746
▁inund	-9747
▁lefto	-9748
▁numer	-9749
▁obvio	-9750
▁pagan	-9751
▁plate	-9752
▁reput	-9753
▁sangu	-9754
▁vitam	-9755
▁zorro	-9756
▁Estudi	-9757
▁accord	-9758
▁boleto	-9759
▁circun	-9760
▁estric	-9761
▁expert	-9762
▁frustr	-9763
▁fueras	-9764
▁origen	-9765
▁poemas	-9766
▁pongas	-9767
▁priest	-9768
▁saving	-9769
▁tesoro	-9770
▁traged	-9771
▁aliento	-9772
▁blancos	-9773
▁degrees	-9774
▁esquiar	-9775
▁estupid	-9776
▁expresi	-9777
▁filosof	-9778
▁impresi	-9779
▁mission	-9780
▁nowhere	-9781
▁partida	-9782
▁plastic	-9783
▁touched	-9784
▁Nosotras	-9785
▁Remember	-9786
▁alfombra	-9787
▁apellido	-9788
▁ayudarle	-9789
▁contamin	-9790
▁contener	-9791
▁entusias	-9792
▁gasolina	-9793
▁interrum	-9794
▁ocurrido	-9795
▁principi	-9796
▁utilizar	-9797
▁vinieron	-9798
▁Cualquier	-9799
▁instituto	-9800
▁characters	-9801
▁temptation	-9802
▁convertirse	-9803
6.	-9804
ko	-9805
sp	-9806
nci	-9807
ray	-9808
utr	-9809
▁ge	-9810
Desp	-9811
blic	-9812
cter	-9813
guen	-9814
iche	-9815
icop	-9816
utch	-9817
▁bod	-9818
▁fol	-9819
▁leo	-9820
▁sow	-9821
▁sug	-9822
alled	-9823
inada	-9824
ometo	-9825
orita	-9826
▁Esco	-9827
▁King	-9828
▁ambi	-9829
▁desv	-9830
▁link	-9831
▁mare	-9832
▁mart	-9833
▁muro	-9834
▁vari	-9835
ington	-9836
uestra	-9837
▁Check	-9838
▁Norte	-9839
▁Trata	-9840
▁begun	-9841
▁hired	-9842
▁pasan	-9843
▁quedo	-9844
▁unexp	-9845
▁wings	-9846
stances	-9847
▁Disney	-9848
▁announ	-9849
▁castig	-9850
▁collar	-9851
▁create	-9852
▁establ	-9853
▁garant	-9854
▁grados	-9855
▁hierba	-9856
▁higher	-9857
▁iremos	-9858
▁leader	-9859
▁louder	-9860
▁source	-9861
▁venden	-9862
▁viajes	-9863
Whatever	-9864
▁callado	-9865
▁cheaper	-9866
▁combust	-9867
▁divided	-9868
▁finding	-9869
▁helicop	-9870
▁molesto	-9871
▁numbers	-9872
▁seguida	-9873
▁Vosotros	-9874
▁asustado	-9875
▁profunda	-9876
▁respirar	-9877
▁apariencia	-9878
▁ignorancia	-9879
▁fundamental	-9880
Go	-9881
ax	-9882
ho	-9883
ron	-9884
ulf	-9885
usc	-9886
▁13	-9887
▁3.	-9888
▁40	-9889
��.	-9890
amen	-9891
bage	-9892
ears	-9893
garo	-9894
ilia	-9895
jalo	-9896
lict	-9897
ngel	-9898
rame	-9899
rows	-9900
unta	-9901
▁Haw	-9902
▁Tim	-9903
▁gal	-9904
▁usu	-9905
adero	-9906
amelo	-9907
anque	-9908
cular	-9909
gando	-9910
icado	-9911
ously	-9912
raged	-9913
▁Cath	-9914
▁Ever	-9915
▁Play	-9916
▁arqu	-9917
▁cero	-9918
▁cock	-9919
▁dime	-9920
▁duch	-9921
▁empu	-9922
▁host	-9923
▁meas	-9924
▁osos	-9925
▁pale	-9926
▁pear	-9927
▁rare	-9928
▁ruin	-9929
▁torn	-9930
▁visa	-9931
atives	-9932
nmente	-9933
uviste	-9934
▁Chile	-9935
▁Tanto	-9936
▁alike	-9937
▁argue	-9938
▁borde	-9939
▁creas	-9940
▁hijas	-9941
▁model	-9942
▁negar	-9943
▁obras	-9944
▁occas	-9945
▁pinta	-9946
▁presi	-9947
▁saldr	-9948
▁sushi	-9949
▁temas	-9950
▁verle	-9951
▁villa	-9952
Durante	-9953
Piensas	-9954
ificado	-9955
▁Almost	-9956
▁Korean	-9957
▁behave	-9958
▁cinema	-9959
▁deseos	-9960
▁diplom	-9961
▁dispos	-9962
▁efecto	-9963
▁exting	-9964
▁impidi	-9965
▁librer	-9966
▁miraba	-9967
▁pagado	-9968
▁proced	-9969
▁region	-9970
▁resour	-9971
▁served	-9972
▁throat	-9973
▁tonter	-9974
▁vieron	-9975
▁adultos	-9976
▁asesino	-9977
▁becomes	-9978
▁cheated	-9979
▁comfort	-9980
▁desnudo	-9981
▁diamond	-9982
▁ignored	-9983
▁monedas	-9984
▁nevando	-9985
▁require	-9986
▁staring	-9987
▁consiste	-9988
▁despedir	-9989
▁licencia	-9990
▁prisoner	-9991
▁accidents	-9992
▁community	-9993
▁detective	-9994
▁entiendes	-9995
▁levantado	-9996
▁renunciar	-9997
▁secretary	-9998
▁temporada	-9999
▁classmates	-10000
▁encontraste	-10001
▁experimento	-10002
OK	-10003
Any	-10004
vol	-10005
wai	-10006
▁Sc	-10007
▁Sp	-10008
cida	-10009
enme	-10010
gled	-10011
ilip	-10012
itis	-10013
laro	-10014
lico	-10015
sert	-10016
town	-10017
▁Alg	-10018
▁Bud	-10019
▁Mrs	-10020
▁Pal	-10021
▁Via	-10022
▁apr	-10023
▁jub	-10024
▁rug	-10025
Compr	-10026
Nadie	-10027
Viste	-10028
aches	-10029
cribe	-10030
ening	-10031
iales	-10032
onest	-10033
ursos	-10034
▁Dale	-10035
▁Lisa	-10036
▁Volv	-10037
▁alas	-10038
▁cari	-10039
▁cura	-10040
▁excl	-10041
▁grad	-10042
▁gris	-10043
▁misi	-10044
Recuer	-10045
ession	-10046
gracia	-10047
rdenes	-10048
▁Empec	-10049
▁Mario	-10050
▁Pedro	-10051
▁basta	-10052
▁coins	-10053
▁daily	-10054
▁diary	-10055
▁fatal	-10056
▁femin	-10057
▁fingi	-10058
▁gifts	-10059
▁inici	-10060
▁jeans	-10061
▁mando	-10062
▁parti	-10063
▁pongo	-10064
▁silly	-10065
▁somet	-10066
▁stink	-10067
▁sucio	-10068
▁taxes	-10069
Tatoeba	-10070
vamente	-10071
▁Tanaka	-10072
▁Things	-10073
▁Vuelve	-10074
▁actriz	-10075
▁admire	-10076
▁alumno	-10077
▁bloque	-10078
▁circum	-10079
▁cuento	-10080
▁detect	-10081
▁double	-10082
▁exists	-10083
▁height	-10084
▁marcha	-10085
▁postre	-10086
▁primos	-10087
▁remark	-10088
▁saltar	-10089
▁snakes	-10090
▁tardar	-10091
▁tejado	-10092
▁verdes	-10093
▁Turkish	-10094
▁absurdo	-10095
▁actress	-10096
▁aprende	-10097
▁cafeter	-10098
▁cliente	-10099
▁comment	-10100
▁confirm	-10101
▁gallina	-10102
▁interro	-10103
▁abducted	-10104
▁aburrida	-10105
▁almohada	-10106
▁infierno	-10107
▁juguetes	-10108
▁misunder	-10109
▁schedule	-10110
▁thirteen	-10111
▁trabajos	-10112
▁visitado	-10113
▁challenge	-10114
▁corriente	-10115
▁daughters	-10116
▁discussed	-10117
▁otherwise	-10118
▁presencia	-10119
▁recuerdos	-10120
▁Washington	-10121
▁complained	-10122
▁existencia	-10123
▁levantarme	-10124
▁sunglasses	-10125
▁decepcionado	-10126
▁independiente	-10127
Voy	-10128
een	-10129
gur	-10130
lad	-10131
omy	-10132
sos	-10133
tee	-10134
the	-10135
ung	-10136
▁II	-10137
Deja	-10138
adme	-10139
angu	-10140
inci	-10141
ipto	-10142
pers	-10143
teme	-10144
▁300	-10145
▁Ben	-10146
▁Gan	-10147
▁Mer	-10148
▁Vos	-10149
▁apu	-10150
▁foc	-10151
▁unc	-10152
adera	-10153
berto	-10154
emplo	-10155
igues	-10156
itzer	-10157
izaje	-10158
ncipe	-10159
▁Perm	-10160
▁Prim	-10161
▁abor	-10162
▁caca	-10163
▁deje	-10164
▁dejo	-10165
▁lips	-10166
▁pesc	-10167
▁sees	-10168
▁soap	-10169
▁sole	-10170
▁supo	-10171
icient	-10172
ngeles	-10173
▁beans	-10174
▁below	-10175
▁cajas	-10176
▁cases	-10177
▁casos	-10178
▁demon	-10179
▁gorda	-10180
▁infer	-10181
▁irnos	-10182
▁logro	-10183
▁moves	-10184
▁notes	-10185
▁ocasi	-10186
▁seats	-10187
▁spite	-10188
▁stage	-10189
▁yendo	-10190
onsider	-10191
▁Israel	-10192
▁Robert	-10193
▁active	-10194
▁autumn	-10195
▁chinos	-10196
▁democr	-10197
▁explor	-10198
▁gatito	-10199
▁improb	-10200
▁interc	-10201
▁labios	-10202
▁letras	-10203
▁lovely	-10204
▁modelo	-10205
▁muerta	-10206
▁normas	-10207
▁precis	-10208
▁quedes	-10209
alloween	-10210
▁Estudio	-10211
▁agotado	-10212
▁consequ	-10213
▁dessert	-10214
▁distint	-10215
▁doctors	-10216
▁enfrent	-10217
▁financi	-10218
▁liberty	-10219
▁mencion	-10220
▁retraso	-10221
▁sensaci	-10222
▁sentada	-10223
▁sesenta	-10224
▁vayamos	-10225
▁volumen	-10226
itzerland	-10227
▁adecuado	-10228
▁amarilla	-10229
▁communic	-10230
▁conflict	-10231
▁desesper	-10232
▁deshacer	-10233
▁festival	-10234
▁mantiene	-10235
▁obedecer	-10236
▁opponent	-10237
▁promises	-10238
▁quedando	-10239
▁realizar	-10240
▁sociales	-10241
▁tranquil	-10242
▁agradecer	-10243
▁desgracia	-10244
▁despedido	-10245
▁graduated	-10246
▁solicitud	-10247
▁Finalmente	-10248
▁aprendiste	-10249
▁reputation	-10250
▁traducciones	-10251
▁recientemente	-10252
aw	-10253
wo	-10254
Mam	-10255
cra	-10256
deo	-10257
orz	-10258
uit	-10259
▁Li	-10260
▁cy	-10261
anna	-10262
brew	-10263
chan	-10264
ensi	-10265
gery	-10266
idur	-10267
izan	-10268
lect	-10269
nero	-10270
ship	-10271
urie	-10272
usas	-10273
usos	-10274
year	-10275
ygen	-10276
zcas	-10277
▁Dav	-10278
▁Mac	-10279
▁Use	-10280
astre	-10281
inate	-10282
mites	-10283
▁Dogs	-10284
▁Mosc	-10285
▁Muri	-10286
▁debt	-10287
▁eigh	-10288
▁fake	-10289
▁fama	-10290
▁gray	-10291
▁male	-10292
▁novi	-10293
▁nutr	-10294
▁pend	-10295
▁rise	-10296
▁rota	-10297
▁sexo	-10298
▁shed	-10299
▁yard	-10300
During	-10301
ciende	-10302
ientas	-10303
▁Pablo	-10304
▁abras	-10305
▁court	-10306
▁deleg	-10307
▁hebre	-10308
▁hered	-10309
▁knock	-10310
▁pages	-10311
▁pesca	-10312
▁ponga	-10313
▁robot	-10314
▁spell	-10315
▁sunny	-10316
▁sweat	-10317
▁twins	-10318
▁vayan	-10319
▁vigil	-10320
▁Quiere	-10321
▁alguno	-10322
▁cheque	-10323
▁consol	-10324
▁cuader	-10325
▁engord	-10326
▁garage	-10327
▁gobern	-10328
▁ocurra	-10329
▁oldest	-10330
▁papers	-10331
▁parano	-10332
▁trenes	-10333
▁unique	-10334
▁virtud	-10335
llamente	-10336
▁Because	-10337
▁Pasamos	-10338
▁claimed	-10339
▁command	-10340
▁concept	-10341
▁consist	-10342
▁divorce	-10343
▁highest	-10344
▁justice	-10345
▁monstru	-10346
▁nervios	-10347
▁provide	-10348
▁reparar	-10349
▁sabidur	-10350
▁superar	-10351
▁trapped	-10352
▁victory	-10353
▁visible	-10354
▁achieved	-10355
▁charming	-10356
▁consejos	-10357
▁divorced	-10358
▁estacion	-10359
▁expresar	-10360
▁improved	-10361
▁romantic	-10362
▁sensible	-10363
▁empezaron	-10364
▁existence	-10365
▁opiniones	-10366
▁conditions	-10367
▁confidence	-10368
▁aprendizaje	-10369
▁translating	-10370
▁especialmente	-10371
▁extraterrestres	-10372
Ni	-10373
Lle	-10374
bio	-10375
bon	-10376
bow	-10377
box	-10378
esp	-10379
mel	-10380
oth	-10381
eper	-10382
grad	-10383
▁193	-10384
▁Ana	-10385
▁Buy	-10386
▁gro	-10387
▁och	-10388
▁tip	-10389
Quien	-10390
ashed	-10391
ganta	-10392
urity	-10393
▁Fuck	-10394
▁affa	-10395
▁cart	-10396
▁dism	-10397
▁fren	-10398
▁junk	-10399
▁luce	-10400
▁mark	-10401
▁pago	-10402
▁pelu	-10403
▁stub	-10404
▁tied	-10405
▁toys	-10406
ferent	-10407
▁Hawai	-10408
▁Polic	-10409
▁Thurs	-10410
▁aside	-10411
▁conqu	-10412
▁copia	-10413
▁coser	-10414
▁dejas	-10415
▁elect	-10416
▁falls	-10417
▁frame	-10418
▁image	-10419
▁magic	-10420
▁mires	-10421
▁sopor	-10422
▁walls	-10423
looking	-10424
ologist	-10425
▁Cookie	-10426
▁Egipto	-10427
▁Hebrew	-10428
▁Spring	-10429
▁anunci	-10430
▁banana	-10431
▁captur	-10432
▁closet	-10433
▁duermo	-10434
▁entreg	-10435
▁excusa	-10436
▁forbid	-10437
▁frigor	-10438
▁insane	-10439
▁interf	-10440
▁jueves	-10441
▁mascul	-10442
▁pillow	-10443
▁pushed	-10444
▁quejar	-10445
▁safety	-10446
▁signed	-10447
▁strike	-10448
▁unfair	-10449
inamente	-10450
ological	-10451
▁Nemesio	-10452
▁Vayamos	-10453
▁aguanto	-10454
▁ahorrar	-10455
▁anxious	-10456
▁balance	-10457
▁battery	-10458
▁brasile	-10459
▁content	-10460
▁cousins	-10461
▁grabbed	-10462
▁hacerle	-10463
▁incapaz	-10464
▁ingenuo	-10465
▁llegues	-10466
▁objetos	-10467
▁ochenta	-10468
▁soldado	-10469
▁unhappy	-10470
▁European	-10471
▁ancianos	-10472
▁familias	-10473
▁humanity	-10474
▁llamaste	-10475
▁persuade	-10476
▁promesas	-10477
▁Francisco	-10478
▁classical	-10479
▁cocinando	-10480
▁interrupt	-10481
▁interview	-10482
▁naturales	-10483
▁planeando	-10484
▁pronounce	-10485
▁trabajaba	-10486
▁afortunado	-10487
▁construcci	-10488
▁especially	-10489
▁esperanzas	-10490
▁improbable	-10491
▁nuevamente	-10492
▁periodista	-10493
▁sobrevivir	-10494
▁sorprender	-10495
▁Christopher	-10496
▁preocuparse	-10497
Ma	-10498
rg	-10499
Era	-10500
Int	-10501
eze	-10502
icu	-10503
iev	-10504
log	-10505
acto	-10506
coat	-10507
fera	-10508
inco	-10509
ueba	-10510
▁194	-10511
▁Bir	-10512
▁Nap	-10513
▁Pok	-10514
▁apa	-10515
▁fab	-10516
▁ord	-10517
▁rit	-10518
▁ros	-10519
▁vid	-10520
Traba	-10521
iseta	-10522
mpara	-10523
ntica	-10524
sicos	-10525
venci	-10526
venir	-10527
▁Febr	-10528
▁Sovi	-10529
▁Tuvo	-10530
▁acad	-10531
▁baff	-10532
▁cave	-10533
▁cord	-10534
▁cure	-10535
▁deny	-10536
▁exig	-10537
▁fuma	-10538
▁lind	-10539
▁moch	-10540
▁puzz	-10541
▁teen	-10542
▁tire	-10543
▁trem	-10544
▁vase	-10545
▁vine	-10546
aturas	-10547
ctrica	-10548
edores	-10549
landia	-10550
▁Angel	-10551
▁Learn	-10552
▁botas	-10553
▁boxes	-10554
▁buses	-10555
▁clara	-10556
▁fuese	-10557
▁helic	-10558
▁hoped	-10559
▁ilusi	-10560
▁marca	-10561
▁maybe	-10562
▁micro	-10563
▁quede	-10564
▁react	-10565
▁shake	-10566
▁vives	-10567
▁Contin	-10568
▁Millie	-10569
▁Seguro	-10570
▁advent	-10571
▁automo	-10572
▁bebido	-10573
▁brings	-10574
▁celoso	-10575
▁cooper	-10576
▁echado	-10577
▁europe	-10578
▁fluent	-10579
▁juzgar	-10580
▁ladder	-10581
▁latest	-10582
▁mismas	-10583
▁negras	-10584
▁phrase	-10585
▁reject	-10586
▁shared	-10587
▁silver	-10588
▁transm	-10589
▁January	-10590
▁actions	-10591
▁apresur	-10592
▁consecu	-10593
▁desperd	-10594
▁explosi	-10595
▁falleci	-10596
▁lecture	-10597
▁oficial	-10598
▁paredes	-10599
▁perfume	-10600
▁ponerme	-10601
▁poquito	-10602
▁pruebas	-10603
▁related	-10604
▁reminds	-10605
▁violent	-10606
ticamente	-10607
▁camiseta	-10608
▁compared	-10609
▁conocida	-10610
▁demanded	-10611
▁garganta	-10612
▁pidiendo	-10613
▁prefiere	-10614
▁sentarme	-10615
▁stubborn	-10616
▁treasure	-10617
▁Halloween	-10618
▁Tendremos	-10619
▁architect	-10620
▁confessed	-10621
▁considera	-10622
▁preparing	-10623
▁presentes	-10624
▁published	-10625
▁recuperar	-10626
▁sensitive	-10627
▁trabajado	-10628
▁transform	-10629
▁amabilidad	-10630
▁apologized	-10631
▁conference	-10632
▁democracia	-10633
▁disappoint	-10634
▁documentos	-10635
▁permanecer	-10636
▁secundaria	-10637
▁translator	-10638
▁Switzerland	-10639
▁descubierto	-10640
▁satisfactor	-10641
▁directamente	-10642
),	-10643
ix	-10644
qui	-10645
squ	-10646
uki	-10647
▁EE	-10648
▁dw	-10649
apor	-10650
assy	-10651
gada	-10652
gros	-10653
ilio	-10654
orno	-10655
part	-10656
rcol	-10657
▁Sea	-10658
▁ase	-10659
▁jur	-10660
▁ple	-10661
▁vag	-10662
▁vom	-10663
atory	-10664
chief	-10665
ciona	-10666
gress	-10667
ormal	-10668
uelas	-10669
venge	-10670
▁Dorm	-10671
▁More	-10672
▁Sois	-10673
▁Such	-10674
▁adem	-10675
▁bici	-10676
▁cebo	-10677
▁chim	-10678
▁daba	-10679
▁hire	-10680
▁impr	-10681
▁juez	-10682
▁knee	-10683
▁liqu	-10684
▁noct	-10685
▁subs	-10686
▁suma	-10687
▁trou	-10688
Debido	-10689
horias	-10690
issors	-10691
izando	-10692
strame	-10693
▁Suiza	-10694
▁depos	-10695
▁encer	-10696
▁oeste	-10697
▁sirvi	-10698
▁stops	-10699
Despite	-10700
usiones	-10701
▁Estuvo	-10702
▁claims	-10703
▁doubts	-10704
▁envelo	-10705
▁espere	-10706
▁heaven	-10707
▁libres	-10708
▁olvide	-10709
▁pasaba	-10710
▁pesada	-10711
▁poetry	-10712
▁points	-10713
▁quejas	-10714
▁rieron	-10715
▁sienta	-10716
▁sweets	-10717
▁wisdom	-10718
▁Austria	-10719
▁Central	-10720
▁atrapar	-10721
▁bonitas	-10722
▁bottles	-10723
▁ceiling	-10724
▁checked	-10725
▁cosecha	-10726
▁delight	-10727
▁drowned	-10728
▁enfadar	-10729
▁escondi	-10730
▁especie	-10731
▁heridas	-10732
▁logrado	-10733
▁mochila	-10734
▁moderna	-10735
▁ringing	-10736
▁vocabul	-10737
▁whoever	-10738
Necesitas	-10739
Sometimes	-10740
▁Thursday	-10741
▁cerrados	-10742
▁conjunto	-10743
▁contenta	-10744
▁cubierto	-10745
▁cultural	-10746
▁families	-10747
▁llegaste	-10748
▁peligros	-10749
▁presents	-10750
▁products	-10751
▁secretos	-10752
▁teniendo	-10753
▁Translate	-10754
▁committee	-10755
▁controlar	-10756
▁estupidez	-10757
▁estuviste	-10758
▁resources	-10759
▁sentenced	-10760
▁sonriendo	-10761
▁strangers	-10762
▁discussion	-10763
▁encuentran	-10764
▁flashlight	-10765
▁unexpected	-10766
▁zanahorias	-10767
▁alternativa	-10768
▁profesional	-10769
▁reservation	-10770
St	-10771
�:	-10772
Our	-10773
Oye	-10774
ded	-10775
kin	-10776
oll	-10777
yes	-10778
▁Ag	-10779
Dame	-10780
asta	-10781
emia	-10782
lied	-10783
onga	-10784
uido	-10785
ulio	-10786
umar	-10787
▁Ama	-10788
▁Llo	-10789
▁Poc	-10790
▁cod	-10791
▁mec	-10792
▁moj	-10793
▁taz	-10794
▁wid	-10795
Gener	-10796
ngaro	-10797
▁City	-10798
▁Fuer	-10799
▁Nara	-10800
▁asks	-10801
▁bron	-10802
▁deer	-10803
▁dobl	-10804
▁envy	-10805
▁kick	-10806
▁ling	-10807
▁pean	-10808
▁robo	-10809
▁unic	-10810
Pueden	-10811
icioso	-10812
inales	-10813
unning	-10814
▁Disfr	-10815
▁Visit	-10816
▁boots	-10817
▁comed	-10818
▁comit	-10819
▁darse	-10820
▁estim	-10821
▁estro	-10822
▁harsh	-10823
▁llego	-10824
▁lleve	-10825
▁miner	-10826
▁mueve	-10827
▁multi	-10828
▁north	-10829
▁pesos	-10830
▁posee	-10831
▁pride	-10832
▁queja	-10833
▁rehus	-10834
▁rooms	-10835
▁tires	-10836
▁title	-10837
▁toque	-10838
▁voted	-10839
▁wheat	-10840
Algunos	-10841
Bienven	-10842
▁Excuse	-10843
▁Porque	-10844
▁admira	-10845
▁bromas	-10846
▁carajo	-10847
▁chosen	-10848
▁compan	-10849
▁compre	-10850
▁coraje	-10851
▁desagr	-10852
▁gimnas	-10853
▁hammer	-10854
▁hatred	-10855
▁income	-10856
▁indign	-10857
▁inters	-10858
▁luchar	-10859
▁matado	-10860
▁negoci	-10861
▁outfit	-10862
▁previs	-10863
▁puedan	-10864
▁robber	-10865
▁tercer	-10866
▁Detesto	-10867
▁carrots	-10868
▁central	-10869
▁directo	-10870
▁engaged	-10871
▁enojada	-10872
▁exagger	-10873
▁inesper	-10874
▁inglesa	-10875
▁moderno	-10876
▁moverse	-10877
▁nativos	-10878
▁orgullo	-10879
▁package	-10880
▁quedara	-10881
▁reserva	-10882
▁secrets	-10883
▁soltero	-10884
▁surgery	-10885
▁Entiendo	-10886
▁arriving	-10887
▁botellas	-10888
▁breaking	-10889
▁careless	-10890
▁chemical	-10891
▁conducta	-10892
▁disfruta	-10893
▁instante	-10894
▁obligado	-10895
▁primeros	-10896
▁properly	-10897
▁resultar	-10898
▁valuable	-10899
▁Esperamos	-10900
▁condenado	-10901
▁generally	-10902
▁invisible	-10903
▁perdiendo	-10904
▁semejante	-10905
▁americanos	-10906
▁cigarettes	-10907
▁comunicaci	-10908
▁estuvieron	-10909
▁foreigners	-10910
▁introduced	-10911
▁journalist	-10912
▁nacimiento	-10913
▁philosophy	-10914
▁principios	-10915
▁communicate	-10916
▁personalidad	-10917
▁translations	-10918
19	-10919
phe	-10920
▁2.	-10921
elig	-10922
oker	-10923
orde	-10924
rico	-10925
▁...	-10926
▁Mod	-10927
▁Van	-10928
▁doc	-10929
▁gui	-10930
▁gym	-10931
▁hir	-10932
▁sax	-10933
▁ult	-10934
Venga	-10935
apped	-10936
astro	-10937
cient	-10938
hetic	-10939
ively	-10940
osici	-10941
riate	-10942
shirt	-10943
teras	-10944
uestr	-10945
▁Dick	-10946
▁Dije	-10947
▁bish	-10948
▁cows	-10949
▁ease	-10950
▁iPad	-10951
▁iban	-10952
▁ibas	-10953
▁pona	-10954
▁pura	-10955
▁sopl	-10956
▁vela	-10957
ishing	-10958
▁Corea	-10959
▁Dutch	-10960
▁Inter	-10961
▁Turqu	-10962
▁abdom	-10963
▁amado	-10964
▁dilig	-10965
▁hello	-10966
▁loter	-10967
▁lucha	-10968
▁malet	-10969
▁monum	-10970
▁mordi	-10971
▁salga	-10972
▁scare	-10973
▁sides	-10974
▁sixty	-10975
▁veras	-10976
▁versi	-10977
▁Anyone	-10978
▁Regres	-10979
▁arruin	-10980
▁breaks	-10981
▁chairs	-10982
▁colect	-10983
▁correg	-10984
▁dating	-10985
▁devast	-10986
▁dijera	-10987
▁dioses	-10988
▁errors	-10989
▁former	-10990
▁ignore	-10991
▁juicio	-10992
▁medios	-10993
▁miente	-10994
▁pepper	-10995
▁stamps	-10996
▁trains	-10997
Necesito	-10998
▁Hagamos	-10999
▁Univers	-11000
▁Whoever	-11001
▁abuelos	-11002
▁bananas	-11003
▁chistes	-11004
▁comiste	-11005
▁concern	-11006
▁fucking	-11007
▁levanto	-11008
▁lottery	-11009
▁milagro	-11010
▁nocturn	-11011
▁pasillo	-11012
▁predict	-11013
▁proceso	-11014
▁quienes	-11015
▁reducir	-11016
▁scolded	-11017
▁thanked	-11018
▁turning	-11019
▁utiliza	-11020
▁viniera	-11021
▁weapons	-11022
▁Aprender	-11023
▁acuerdas	-11024
▁aguantar	-11025
▁atropell	-11026
▁carrying	-11027
▁cocinero	-11028
▁completa	-11029
▁defectos	-11030
▁engineer	-11031
▁espacial	-11032
▁exciting	-11033
▁guarante	-11034
▁incident	-11035
▁inferior	-11036
▁pimienta	-11037
▁recursos	-11038
▁reputaci	-11039
▁segundos	-11040
▁suffered	-11041
▁asesinado	-11042
▁elefantes	-11043
▁explosion	-11044
▁ignorance	-11045
▁influence	-11046
▁razonable	-11047
▁religious	-11048
▁traductor	-11049
▁tranquila	-11050
▁collection	-11051
▁compromiso	-11052
▁convertido	-11053
▁decisiones	-11054
▁desarrollo	-11055
▁expression	-11056
▁helicopter	-11057
▁relaciones	-11058
▁extranjeras	-11059
▁ordenadores	-11060
▁professional	-11061
Va	-11062
iw	-11063
li	-11064
vu	-11065
Act	-11066
fin	-11067
ops	-11068
pci	-11069
put	-11070
▁uv	-11071
Here	-11072
Much	-11073
alos	-11074
cada	-11075
days	-11076
lsen	-11077
tein	-11078
▁Die	-11079
▁Hir	-11080
▁Jos	-11081
▁Red	-11082
▁Wed	-11083
▁acu	-11084
▁row	-11085
abeto	-11086
bitos	-11087
curso	-11088
iders	-11089
iloto	-11090
uegos	-11091
▁Ayud	-11092
▁Coge	-11093
▁Find	-11094
▁From	-11095
▁Vale	-11096
▁Vino	-11097
▁arco	-11098
▁belt	-11099
▁borr	-11100
▁cedi	-11101
▁dies	-11102
▁kidn	-11103
▁mata	-11104
▁mate	-11105
▁mutu	-11106
▁onto	-11107
▁orph	-11108
▁pido	-11109
▁pine	-11110
▁puls	-11111
▁repl	-11112
▁seco	-11113
▁shoe	-11114
▁uvas	-11115
leased	-11116
urance	-11117
▁Guard	-11118
▁Happy	-11119
▁Querr	-11120
▁abort	-11121
▁asign	-11122
▁disag	-11123
▁enero	-11124
▁entra	-11125
▁falsa	-11126
▁flour	-11127
▁imped	-11128
▁incon	-11129
▁jaula	-11130
▁manip	-11131
▁patas	-11132
▁pilot	-11133
▁pizar	-11134
▁purse	-11135
▁rainy	-11136
▁sembr	-11137
▁tinta	-11138
▁tomes	-11139
▁trigo	-11140
berries	-11141
osexual	-11142
parents	-11143
▁Hawaii	-11144
▁calend	-11145
▁danced	-11146
▁defeat	-11147
▁exager	-11148
▁fortal	-11149
▁negros	-11150
▁oscura	-11151
▁oxygen	-11152
▁placed	-11153
▁prince	-11154
▁shadow	-11155
▁sillas	-11156
▁sobras	-11157
▁stress	-11158
▁sucede	-11159
▁sufrir	-11160
▁tengan	-11161
▁vidrio	-11162
▁volume	-11163
▁weapon	-11164
▁Carlsen	-11165
▁Everest	-11166
▁acordar	-11167
▁adopted	-11168
▁apetece	-11169
▁ardilla	-11170
▁experto	-11171
▁garbage	-11172
▁greeted	-11173
▁harvest	-11174
▁intenta	-11175
▁journey	-11176
▁mentido	-11177
▁pasamos	-11178
▁persist	-11179
▁poverty	-11180
▁privado	-11181
▁quedaba	-11182
▁selfish	-11183
▁shining	-11184
▁soporto	-11185
▁species	-11186
▁tercera	-11187
▁unusual	-11188
▁viniste	-11189
▁vivimos	-11190
▁wasting	-11191
▁watches	-11192
▁alquilar	-11193
▁circunst	-11194
▁clothing	-11195
▁comments	-11196
▁empleado	-11197
▁entrance	-11198
▁linterna	-11199
▁majority	-11200
▁memories	-11201
▁muriendo	-11202
▁official	-11203
▁opciones	-11204
▁oponente	-11205
▁parecido	-11206
▁secuestr	-11207
▁upstairs	-11208
▁comunidad	-11209
▁effective	-11210
▁entienden	-11211
▁escondido	-11212
▁ocultando	-11213
▁prefieres	-11214
▁arrepiento	-11215
▁preocupada	-11216
▁canadienses	-11217
▁experienced	-11218
▁fascinating	-11219
▁habitaciones	-11220
▁circumstances	-11221
yr	-11222
▁x	-11223
Enc	-11224
Tan	-11225
boy	-11226
oge	-11227
org	-11228
rap	-11229
yas	-11230
▁Ak	-11231
▁ov	-11232
�!"	-11233
Creo	-11234
Ojal	-11235
agar	-11236
cope	-11237
dica	-11238
etic	-11239
five	-11240
foro	-11241
idio	-11242
irty	-11243
orra	-11244
osta	-11245
pico	-11246
stas	-11247
uega	-11248
uled	-11249
vent	-11250
▁Add	-11251
▁Beb	-11252
▁DNA	-11253
▁Ens	-11254
▁Lee	-11255
▁Mor	-11256
▁Sur	-11257
▁ais	-11258
▁luc	-11259
▁sop	-11260
▁tun	-11261
▁unt	-11262
cidos	-11263
eness	-11264
etnam	-11265
house	-11266
itary	-11267
jamos	-11268
jiste	-11269
lands	-11270
mbolo	-11271
orado	-11272
phere	-11273
▁2:30	-11274
▁Fred	-11275
▁chup	-11276
▁dawn	-11277
▁delf	-11278
▁fork	-11279
▁gain	-11280
▁mald	-11281
▁malv	-11282
▁nest	-11283
▁neum	-11284
▁pawn	-11285
▁rein	-11286
▁seca	-11287
▁silb	-11288
▁solt	-11289
▁toki	-11290
quinas	-11291
rcoles	-11292
uestro	-11293
▁Adoro	-11294
▁Fumar	-11295
▁Hable	-11296
▁Korea	-11297
▁Plane	-11298
▁aclar	-11299
▁adora	-11300
▁appet	-11301
▁arras	-11302
▁basic	-11303
▁besar	-11304
▁exhib	-11305
▁foods	-11306
▁grano	-11307
▁guide	-11308
▁melod	-11309
▁mezcl	-11310
▁pasto	-11311
▁prior	-11312
▁proof	-11313
▁rueda	-11314
▁serve	-11315
▁shook	-11316
▁solid	-11317
▁tarda	-11318
▁twist	-11319
▁vasos	-11320
Estabas	-11321
▁Follow	-11322
▁Laurie	-11323
▁Nature	-11324
▁Turkey	-11325
▁abejas	-11326
▁acumul	-11327
▁adults	-11328
▁associ	-11329
▁barata	-11330
▁cortas	-11331
▁demons	-11332
▁grapes	-11333
▁malent	-11334
▁manage	-11335
▁micros	-11336
▁mortal	-11337
▁narrow	-11338
▁obtuvo	-11339
▁parked	-11340
▁prover	-11341
▁Escribe	-11342
▁Ninguna	-11343
▁comidas	-11344
▁despise	-11345
▁digital	-11346
▁discrim	-11347
▁estruct	-11348
▁existir	-11349
▁fiestas	-11350
▁furious	-11351
▁however	-11352
▁intoler	-11353
▁killing	-11354
▁llevado	-11355
▁longest	-11356
▁options	-11357
▁puntual	-11358
▁quarter	-11359
▁ratones	-11360
▁relativ	-11361
▁sincero	-11362
▁testigo	-11363
▁tiendas	-11364
▁warning	-11365
▁wounded	-11366
▁February	-11367
▁citizens	-11368
▁defender	-11369
▁discover	-11370
▁envelope	-11371
▁forgiven	-11372
▁infantil	-11373
▁intended	-11374
▁mensajes	-11375
▁messages	-11376
▁reconoci	-11377
▁revistas	-11378
▁scissors	-11379
▁tengamos	-11380
▁Esperemos	-11381
▁astronaut	-11382
▁atractiva	-11383
▁confident	-11384
▁customers	-11385
▁decisions	-11386
▁deliciosa	-11387
▁incidente	-11388
▁indispens	-11389
▁inocencia	-11390
▁peligrosa	-11391
▁perdieron	-11392
▁populares	-11393
▁practicar	-11394
▁regularly	-11395
▁scientist	-11396
▁therefore	-11397
▁confundido	-11398
▁constantly	-11399
▁encuentras	-11400
▁frightened	-11401
▁hambriento	-11402
▁influencia	-11403
▁mutuamente	-11404
▁reasonable	-11405
▁desaparecido	-11406
▁consecuencias	-11407
▁correctamente	-11408
ms	-11409
jan	-11410
ocr	-11411
rme	-11412
vem	-11413
vit	-11414
win	-11415
zzy	-11416
▁Af	-11417
aran	-11418
ieza	-11419
igan	-11420
inti	-11421
lica	-11422
oras	-11423
▁Cog	-11424
▁Del	-11425
▁Rio	-11426
▁Sep	-11427
▁Won	-11428
▁fea	-11429
▁fug	-11430
▁hin	-11431
▁lug	-11432
▁sam	-11433
Esper	-11434
Sobre	-11435
cript	-11436
estim	-11437
jamas	-11438
micos	-11439
owers	-11440
tanos	-11441
▁Cong	-11442
▁July	-11443
▁Mand	-11444
▁Vine	-11445
▁abus	-11446
▁bola	-11447
▁cups	-11448
▁edif	-11449
▁fart	-11450
▁gane	-11451
▁gods	-11452
▁ilum	-11453
▁lava	-11454
▁pozo	-11455
▁stro	-11456
▁vago	-11457
▁veas	-11458
▁west	-11459
Buenos	-11460
Having	-11461
acidad	-11462
endida	-11463
estern	-11464
onales	-11465
quitos	-11466
vember	-11467
▁Being	-11468
▁Claus	-11469
▁Death	-11470
▁Langu	-11471
▁Marie	-11472
▁Start	-11473
▁Suelo	-11474
▁Tradu	-11475
▁ambas	-11476
▁canto	-11477
▁crema	-11478
▁earns	-11479
▁faces	-11480
▁forms	-11481
▁goose	-11482
▁impat	-11483
▁lacks	-11484
▁lasts	-11485
▁llora	-11486
▁meals	-11487
▁muero	-11488
▁nails	-11489
▁paral	-11490
▁ponen	-11491
▁restr	-11492
▁spoon	-11493
▁sujet	-11494
▁swims	-11495
▁tonta	-11496
▁trash	-11497
▁tries	-11498
▁vendi	-11499
▁vigor	-11500
▁witch	-11501
▁withd	-11502
▁Llegar	-11503
▁Napole	-11504
▁Wednes	-11505
▁abrupt	-11506
▁aceler	-11507
▁adonde	-11508
▁confir	-11509
▁detail	-11510
▁diablo	-11511
▁dibujo	-11512
▁drawer	-11513
▁estorn	-11514
▁firmar	-11515
▁frozen	-11516
▁gastos	-11517
▁harina	-11518
▁hebreo	-11519
▁hunger	-11520
▁immigr	-11521
▁insens	-11522
▁niebla	-11523
▁objeto	-11524
▁piloto	-11525
▁policy	-11526
▁precip	-11527
▁puerto	-11528
▁rescat	-11529
▁riendo	-11530
▁sujeto	-11531
▁tomate	-11532
▁videoj	-11533
▁viejas	-11534
▁worker	-11535
Suddenly	-11536
Whenever	-11537
▁However	-11538
▁ayudado	-11539
▁barking	-11540
▁compens	-11541
▁disculp	-11542
▁dominar	-11543
▁gemelos	-11544
▁incluye	-11545
▁kissing	-11546
▁noventa	-11547
▁painful	-11548
▁parties	-11549
▁pianist	-11550
▁planned	-11551
▁ponerte	-11552
▁regreso	-11553
▁rodeado	-11554
▁rodilla	-11555
▁saliera	-11556
▁spilled	-11557
▁November	-11558
▁advanced	-11559
▁alemanes	-11560
▁amanecer	-11561
▁caluroso	-11562
▁canceled	-11563
▁desagrad	-11564
▁diseases	-11565
▁dreaming	-11566
▁economic	-11567
▁estudios	-11568
▁opinions	-11569
▁pianista	-11570
▁planetas	-11571
▁positive	-11572
▁essential	-11573
▁estupendo	-11574
▁exception	-11575
▁financial	-11576
▁interrump	-11577
▁leftovers	-11578
▁muchachos	-11579
▁permitido	-11580
▁resembles	-11581
▁separated	-11582
▁bienvenida	-11583
▁considerar	-11584
▁department	-11585
▁impaciente	-11586
▁indifferent	-11587
▁movimientos	-11588
▁personality	-11589
▁construction	-11590
▁grandparents	-11591
▁interesantes	-11592
▁refrigerador	-11593
'.	-11594
Eh	-11595
Ob	-11596
Pe	-11597
Pr	-11598
▁_	-11599
Did	-11600
Haz	-11601
Spe	-11602
dro	-11603
fas	-11604
▁Ur	-11605
▁Ze	-11606
▁ic	-11607
acos	-11608
anse	-11609
athy	-11610
brio	-11611
ifle	-11612
inet	-11613
isas	-11614
reme	-11615
udir	-11616
yard	-11617
▁Leo	-11618
▁Yam	-11619
▁aho	-11620
▁boc	-11621
▁fen	-11622
▁ink	-11623
▁mum	-11624
▁odi	-11625
asant	-11626
bados	-11627
brero	-11628
inero	-11629
iores	-11630
iraci	-11631
istry	-11632
tress	-11633
vista	-11634
▁Hand	-11635
▁Park	-11636
▁Sabe	-11637
▁Save	-11638
▁adqu	-11639
▁atom	-11640
▁caba	-11641
▁cage	-11642
▁cham	-11643
▁copa	-11644
▁cubo	-11645
▁fate	-11646
▁mask	-11647
▁mole	-11648
▁pipe	-11649
▁puta	-11650
▁retr	-11651
▁thor	-11652
ichael	-11653
inated	-11654
tering	-11655
utions	-11656
▁March	-11657
▁Marte	-11658
▁acqua	-11659
▁crack	-11660
▁cuida	-11661
▁dispu	-11662
▁dozen	-11663
▁gasta	-11664
▁herir	-11665
▁jubil	-11666
▁julio	-11667
▁loose	-11668
▁metas	-11669
▁minds	-11670
▁murci	-11671
▁mustn	-11672
▁negot	-11673
▁occup	-11674
▁ofrec	-11675
▁opera	-11676
▁plaza	-11677
▁remed	-11678
▁scary	-11679
▁supon	-11680
▁temer	-11681
▁tower	-11682
▁Marika	-11683
▁Pueden	-11684
▁acabas	-11685
▁adicto	-11686
▁adulto	-11687
▁amante	-11688
▁begged	-11689
▁bomber	-11690
▁cerdos	-11691
▁damage	-11692
▁desemp	-11693
▁forces	-11694
▁huelga	-11695
▁instal	-11696
▁mobile	-11697
▁mueren	-11698
▁realiz	-11699
▁reduce	-11700
▁reform	-11701
▁remove	-11702
▁riding	-11703
▁series	-11704
▁struck	-11705
▁amenaza	-11706
▁charged	-11707
▁colecci	-11708
▁educado	-11709
▁envidia	-11710
▁escalar	-11711
▁greater	-11712
▁guardia	-11713
▁horizon	-11714
▁llamaba	-11715
▁llegada	-11716
▁luggage	-11717
▁miracle	-11718
▁nublado	-11719
▁planets	-11720
▁pointed	-11721
▁showing	-11722
▁sienten	-11723
▁swallow	-11724
▁tourist	-11725
Yesterday	-11726
▁antiguos	-11727
▁cheating	-11728
▁composed	-11729
▁embajada	-11730
▁enjoying	-11731
▁entirely	-11732
▁frontera	-11733
▁gathered	-11734
▁imagined	-11735
▁ladrones	-11736
▁murdered	-11737
▁physical	-11738
▁pidieron	-11739
▁previous	-11740
▁requires	-11741
▁security	-11742
▁sentados	-11743
▁superfic	-11744
▁thorough	-11745
▁transmit	-11746
▁turistas	-11747
▁buildings	-11748
▁comprarlo	-11749
▁connected	-11750
▁conversar	-11751
▁democracy	-11752
▁evidencia	-11753
▁foreigner	-11754
▁franceses	-11755
▁sorprende	-11756
▁tendremos	-11757
▁wondering	-11758
▁abandonada	-11759
▁consideran	-11760
▁revolution	-11761
▁secretaria	-11762
▁competition	-11763
▁conduciendo	-11764
▁emocionante	-11765
▁habilidades	-11766
▁difficulties	-11767
▁generalmente	-11768
▁frecuentemente	-11769
▁definitivamente	-11770
ju	-11771
▁#	-11772
Vos	-11773
gla	-11774
joy	-11775
nad	-11776
nia	-11777
omb	-11778
▁ub	-11779
Give	-11780
Wait	-11781
aker	-11782
atis	-11783
erdo	-11784
icaz	-11785
laci	-11786
onda	-11787
rada	-11788
▁Div	-11789
▁Gar	-11790
▁Hum	-11791
▁Old	-11792
▁ave	-11793
▁caz	-11794
▁fid	-11795
▁hyp	-11796
▁nod	-11797
▁odd	-11798
▁sar	-11799
empla	-11800
ionar	-11801
ipper	-11802
nsito	-11803
pidos	-11804
ptero	-11805
scara	-11806
store	-11807
▁Anna	-11808
▁Dese	-11809
▁Mars	-11810
▁Miss	-11811
▁aula	-11812
▁bang	-11813
▁damn	-11814
▁dici	-11815
▁hidr	-11816
▁mast	-11817
▁mayo	-11818
▁pavo	-11819
▁ping	-11820
▁pues	-11821
▁rell	-11822
▁rush	-11823
▁sard	-11824
▁site	-11825
▁velo	-11826
Compar	-11827
atoria	-11828
carach	-11829
ciocho	-11830
iendes	-11831
illing	-11832
istics	-11833
▁Antes	-11834
▁Hurry	-11835
▁Laura	-11836
▁acced	-11837
▁almac	-11838
▁ancho	-11839
▁calvo	-11840
▁caras	-11841
▁cinta	-11842
▁confi	-11843
▁cueva	-11844
▁damas	-11845
▁deuda	-11846
▁dizzy	-11847
▁furry	-11848
▁giant	-11849
▁hayan	-11850
▁pares	-11851
▁promo	-11852
▁talla	-11853
▁yield	-11854
▁Mennad	-11855
▁beside	-11856
▁blonde	-11857
▁cadena	-11858
▁candle	-11859
▁formal	-11860
▁global	-11861
▁herram	-11862
▁kitten	-11863
▁manual	-11864
▁nearby	-11865
▁poured	-11866
▁puzzle	-11867
▁sewing	-11868
▁siguen	-11869
▁stared	-11870
▁struct	-11871
▁tomato	-11872
kerchief	-11873
▁Dijeron	-11874
▁Johnson	-11875
▁approve	-11876
▁cientos	-11877
▁conejos	-11878
▁cottage	-11879
▁counter	-11880
▁damaged	-11881
▁demanda	-11882
▁encendi	-11883
▁famosos	-11884
▁grammar	-11885
▁grosero	-11886
▁hanging	-11887
▁hunting	-11888
▁materia	-11889
▁measure	-11890
▁pasaron	-11891
▁pedirte	-11892
▁planted	-11893
▁stepped	-11894
▁surface	-11895
▁tijeras	-11896
▁vencido	-11897
▁Esperaba	-11898
▁antiguas	-11899
▁asientos	-11900
▁cucarach	-11901
▁darkness	-11902
▁deserted	-11903
▁employee	-11904
▁entradas	-11905
▁estanque	-11906
▁exterior	-11907
▁gimnasio	-11908
▁habitual	-11909
▁hermosos	-11910
▁ingresos	-11911
▁martillo	-11912
▁occasion	-11913
▁perspect	-11914
▁response	-11915
▁salieron	-11916
▁sentarse	-11917
▁separate	-11918
▁triunfar	-11919
▁Encontrar	-11920
▁Wednesday	-11921
▁amarillas	-11922
▁arrestado	-11923
▁conocimos	-11924
▁describir	-11925
▁edificios	-11926
▁eternidad	-11927
▁hablantes	-11928
▁impatient	-11929
▁insurance	-11930
▁magazines	-11931
▁miserable	-11932
▁operation	-11933
▁reuniones	-11934
▁siguiendo	-11935
▁demasiados	-11936
▁homosexual	-11937
▁honestidad	-11938
▁incredible	-11939
▁production	-11940
▁sandwiches	-11941
▁scientific	-11942
▁trabajador	-11943
▁acostumbrada	-11944
▁handkerchief	-11945
▁herramientas	-11946
BI	-11947
UU	-11948
uj	-11949
Pas	-11950
aks	-11951
alf	-11952
eah	-11953
ete	-11954
now	-11955
oot	-11956
▁90	-11957
▁XX	-11958
▁ep	-11959
▁et	-11960
▁wo	-11961
cend	-11962
cota	-11963
ecas	-11964
irus	-11965
izas	-11966
lean	-11967
mite	-11968
onic	-11969
quen	-11970
rain	-11971
rian	-11972
rive	-11973
rpre	-11974
▁Air	-11975
▁Ele	-11976
▁Fel	-11977
▁Hen	-11978
▁Vol	-11979
▁Wik	-11980
▁ali	-11981
▁pac	-11982
▁reb	-11983
▁rio	-11984
▁tif	-11985
Feliz	-11986
agers	-11987
allas	-11988
cidas	-11989
etera	-11990
orios	-11991
paste	-11992
rculo	-11993
stead	-11994
▁Acab	-11995
▁Anne	-11996
▁Budd	-11997
▁Cont	-11998
▁Flor	-11999
▁Haga	-12000
▁acto	-12001
▁cabe	-12002
▁chir	-12003
▁cubr	-12004
▁depr	-12005
▁elog	-12006
▁estu	-12007
▁lech	-12008
▁merc	-12009
▁sint	-12010
▁tiny	-12011
▁verb	-12012
ativos	-12013
queros	-12014
umbres	-12015
▁Nobel	-12016
▁Paulo	-12017
▁Perdi	-12018
▁Segun	-12019
▁Vengo	-12020
▁acond	-12021
▁arroj	-12022
▁atmos	-12023
▁bitch	-12024
▁broad	-12025
▁cable	-12026
▁cakes	-12027
▁canal	-12028
▁clave	-12029
▁coron	-12030
▁desat	-12031
▁diera	-12032
▁essay	-12033
▁fairy	-12034
▁felic	-12035
▁forec	-12036
▁fully	-12037
▁goods	-12038
▁homic	-12039
▁inher	-12040
▁minim	-12041
▁modos	-12042
▁natal	-12043
▁pegar	-12044
▁pharm	-12045
▁poker	-12046
▁sauce	-12047
▁stove	-12048
▁teles	-12049
▁tinto	-12050
▁turco	-12051
▁tuyos	-12052
agement	-12053
rowning	-12054
writing	-12055
▁Piensa	-12056
▁Street	-12057
▁apreci	-12058
▁branch	-12059
▁carpet	-12060
▁cierre	-12061
▁cloudy	-12062
▁comete	-12063
▁compro	-12064
▁corrup	-12065
▁cuales	-12066
▁dancer	-12067
▁dirigi	-12068
▁divide	-12069
▁esclav	-12070
▁formar	-12071
▁formed	-12072
▁fresca	-12073
▁fruits	-12074
▁futbol	-12075
▁grades	-12076
▁habits	-12077
▁humill	-12078
▁irresp	-12079
▁landed	-12080
▁largos	-12081
▁leerlo	-12082
▁monkey	-12083
▁pedazo	-12084
▁rented	-12085
▁resort	-12086
▁salgas	-12087
▁sentar	-12088
▁settle	-12089
▁shirts	-12090
▁spider	-12091
▁templo	-12092
▁transp	-12093
▁wished	-12094
▁Aquella	-12095
▁apasion	-12096
▁baffled	-12097
▁billion	-12098
▁cigarro	-12099
▁confuse	-12100
▁context	-12101
▁crowded	-12102
▁follows	-12103
▁llegara	-12104
▁mascota	-12105
▁objects	-12106
▁parezca	-12107
▁pienses	-12108
▁quietly	-12109
▁respeta	-12110
▁retired	-12111
▁seconds	-12112
▁tomates	-12113
▁typical	-12114
▁unemplo	-12115
▁unknown	-12116
Recuerdas	-12117
▁abiertas	-12118
▁alfabeto	-12119
▁ambiente	-12120
▁approved	-12121
▁champion	-12122
▁conclusi	-12123
▁cortinas	-12124
▁ejemplos	-12125
▁encender	-12126
▁entering	-12127
▁generous	-12128
▁gustaban	-12129
▁hesitate	-12130
▁lavadora	-12131
▁ministro	-12132
▁producci	-12133
▁salvajes	-12134
▁textbook	-12135
▁tortured	-12136
▁alimentar	-12137
▁cellphone	-12138
▁comenzado	-12139
▁correctly	-12140
▁dieciocho	-12141
▁esperamos	-12142
▁favourite	-12143
▁forbidden	-12144
▁invention	-12145
▁mentioned	-12146
▁mosquitos	-12147
▁pacientes	-12148
▁tradicion	-12149
▁adelantado	-12150
▁bienvenido	-12151
▁cigarrillo	-12152
▁conscience	-12153
▁convenient	-12154
▁disgusting	-12155
▁musulmanes	-12156
▁pronunciar	-12157
▁superficie	-12158
▁competencia	-12159
▁encantadora	-12160
▁handwriting	-12161
▁pensamiento	-12162
▁impresionado	-12163
▁indispensable	-12164
▁circunstancias	-12165
4,	-12166
7,	-12167
7.	-12168
Ne	-12169
Po	-12170
rf	-12171
Dej	-12172
Mom	-12173
ady	-12174
cus	-12175
etr	-12176
fly	-12177
ipp	-12178
rol	-12179
rom	-12180
rse	-12181
uos	-12182
▁Er	-12183
▁Mc	-12184
▁Oc	-12185
aped	-12186
aved	-12187
azos	-12188
cest	-12189
dijo	-12190
emic	-12191
estr	-12192
okoh	-12193
utas	-12194
▁Ham	-12195
▁Pay	-12196
▁Sil	-12197
▁hoc	-12198
▁ira	-12199
▁jod	-12200
▁unb	-12201
Donde	-12202
Entre	-12203
Hurry	-12204
copio	-12205
ctima	-12206
doors	-12207
flies	-12208
ienda	-12209
ilton	-12210
ngase	-12211
onoce	-12212
▁Finn	-12213
▁Hong	-12214
▁apet	-12215
▁evit	-12216
▁gest	-12217
▁obse	-12218
▁pasi	-12219
▁puro	-12220
▁seda	-12221
▁seek	-12222
▁sept	-12223
▁silk	-12224
▁spin	-12225
▁trig	-12226
▁tumb	-12227
cuador	-12228
itaria	-12229
▁Cambi	-12230
▁Great	-12231
▁Green	-12232
▁Union	-12233
▁Yokoh	-12234
▁agres	-12235
▁ajust	-12236
▁album	-12237
▁altas	-12238
▁assem	-12239
▁averg	-12240
▁bless	-12241
▁bunch	-12242
▁claim	-12243
▁empec	-12244
▁exams	-12245
▁fewer	-12246
▁films	-12247
▁firme	-12248
▁goals	-12249
▁marks	-12250
▁neutr	-12251
▁penal	-12252
▁recap	-12253
▁resol	-12254
▁ritmo	-12255
▁rojos	-12256
▁rough	-12257
▁spare	-12258
▁tiger	-12259
▁toast	-12260
▁tomas	-12261
▁viera	-12262
Incluso	-12263
cciones	-12264
▁Prepar	-12265
▁apesta	-12266
▁astuto	-12267
▁brains	-12268
▁bullet	-12269
▁crecen	-12270
▁crecer	-12271
▁dismin	-12272
▁empres	-12273
▁ensayo	-12274
▁issues	-12275
▁knight	-12276
▁legend	-12277
▁loudly	-12278
▁madrug	-12279
▁modest	-12280
▁nacido	-12281
▁negoti	-12282
▁olvida	-12283
▁reales	-12284
▁receta	-12285
▁reward	-12286
▁snowed	-12287
▁subido	-12288
▁target	-12289
▁vecina	-12290
▁vecind	-12291
▁victim	-12292
▁virtue	-12293
▁wooden	-12294
blemente	-12295
▁Abandon	-12296
▁Janeiro	-12297
▁aparece	-12298
▁archivo	-12299
▁attract	-12300
▁aviones	-12301
▁baggage	-12302
▁blanket	-12303
▁casarme	-12304
▁confess	-12305
▁customs	-12306
▁dibujar	-12307
▁efectos	-12308
▁estrope	-12309
▁extingu	-12310
▁febrero	-12311
▁hagamos	-12312
▁horario	-12313
▁lessons	-12314
▁limited	-12315
▁listens	-12316
▁maletas	-12317
▁manners	-12318
▁pierdas	-12319
▁probado	-12320
▁relajar	-12321
▁revisar	-12322
▁tenedor	-12323
▁version	-12324
▁Hablamos	-12325
▁Yokohama	-12326
▁agricult	-12327
▁cuaderno	-12328
▁drowning	-12329
▁hundreds	-12330
▁ignorant	-12331
▁insisted	-12332
▁interrog	-12333
▁llamadas	-12334
▁machines	-12335
▁molestar	-12336
▁murderer	-12337
▁progreso	-12338
▁promedio	-12339
▁provided	-12340
▁pudieras	-12341
▁rejected	-12342
▁respetar	-12343
▁spending	-12344
▁tomatoes	-12345
Finalmente	-12346
▁administr	-12347
▁ambulance	-12348
▁authority	-12349
▁collected	-12350
▁comprando	-12351
▁disguised	-12352
▁divertida	-12353
▁incorrect	-12354
▁izquierdo	-12355
▁mostrarte	-12356
▁ciudadanos	-12357
▁conclusion	-12358
▁construido	-12359
▁entrevista	-12360
▁increasing	-12361
▁threatened	-12362
▁preguntarte	-12363
fortunadamente	-12364
▁communication	-12365
▁personalmente	-12366
9,	-12367
ME	-12368
hy	-12369
▁Q	-12370
Get	-12371
Sea	-12372
bul	-12373
clo	-12374
ija	-12375
ntr	-12376
odo	-12377
usk	-12378
acas	-12379
cubr	-12380
digo	-12381
gast	-12382
ikes	-12383
rale	-12384
ralo	-12385
rete	-12386
▁Ado	-12387
▁Ara	-12388
▁Hit	-12389
▁Jug	-12390
▁Sit	-12391
▁aun	-12392
▁bis	-12393
▁geo	-12394
▁imb	-12395
▁ket	-12396
▁pee	-12397
0.000	-12398
anter	-12399
borra	-12400
estar	-12401
guard	-12402
pidas	-12403
rando	-12404
uelvo	-12405
▁Real	-12406
▁Vete	-12407
▁Wood	-12408
▁adap	-12409
▁bise	-12410
▁crea	-12411
▁culo	-12412
▁diss	-12413
▁elig	-12414
▁nube	-12415
▁oven	-12416
▁puts	-12417
▁quin	-12418
▁rail	-12419
▁sham	-12420
▁shel	-12421
▁supe	-12422
▁tost	-12423
Buenas	-12424
americ	-12425
gratul	-12426
▁2013.	-12427
▁Birds	-12428
▁Julia	-12429
▁Queda	-12430
▁argel	-12431
▁ceder	-12432
▁cuero	-12433
▁dejan	-12434
▁encon	-12435
▁ficci	-12436
▁hazlo	-12437
▁holds	-12438
▁horno	-12439
▁hundi	-12440
▁jewel	-12441
▁leads	-12442
▁nombr	-12443
▁prime	-12444
▁psych	-12445
▁serie	-12446
▁sordo	-12447
▁split	-12448
▁sudor	-12449
▁tazas	-12450
▁vuela	-12451
▁waves	-12452
Cuidado	-12453
Quieren	-12454
amentos	-12455
▁Fueron	-12456
▁Kabyle	-12457
▁acorde	-12458
▁allows	-12459
▁ancest	-12460
▁applic	-12461
▁belief	-12462
▁bishop	-12463
▁cockro	-12464
▁conced	-12465
▁cultiv	-12466
▁dimens	-12467
▁dreamt	-12468
▁eighty	-12469
▁espant	-12470
▁fabric	-12471
▁fairly	-12472
▁hugged	-12473
▁libras	-12474
▁ligero	-12475
▁makeup	-12476
▁margar	-12477
▁nerves	-12478
▁nights	-12479
▁opinas	-12480
▁orphan	-12481
▁plates	-12482
▁promot	-12483
▁reflex	-12484
▁respir	-12485
▁retire	-12486
▁temple	-12487
▁veneno	-12488
▁wounds	-12489
▁accumul	-12490
▁advirti	-12491
▁ahorros	-12492
▁arrival	-12493
▁bonitos	-12494
▁chances	-12495
▁dejaste	-12496
▁delgado	-12497
▁derrota	-12498
▁desocup	-12499
▁destroy	-12500
▁elderly	-12501
▁gigante	-12502
▁grammat	-12503
▁grandma	-12504
▁haircut	-12505
▁hurried	-12506
▁leather	-12507
▁matches	-12508
▁picante	-12509
▁prefers	-12510
▁sacerdo	-12511
▁shouted	-12512
▁tristes	-12513
▁whisper	-12514
entamente	-12515
▁Gobierno	-12516
▁Llegamos	-12517
▁affected	-12518
▁alquiler	-12519
▁cancelar	-12520
▁comprend	-12521
▁concurso	-12522
▁demonios	-12523
▁demonstr	-12524
▁desastre	-12525
▁detenido	-12526
▁eighteen	-12527
▁forecast	-12528
▁informed	-12529
▁llevarme	-12530
▁minister	-12531
▁molestes	-12532
▁property	-12533
▁pudieron	-12534
▁released	-12535
▁restless	-12536
▁revealed	-12537
▁screamed	-12538
▁tourists	-12539
▁uniforme	-12540
▁venganza	-12541
▁vuestros	-12542
▁worrying	-12543
▁arrogante	-12544
▁attempted	-12545
▁attracted	-12546
▁autoridad	-12547
▁comprendo	-12548
▁congratul	-12549
▁considero	-12550
▁convertir	-12551
▁desperate	-12552
▁encantado	-12553
▁including	-12554
▁propiedad	-12555
▁thousands	-12556
▁afterwards	-12557
▁ambulancia	-12558
▁conseguido	-12559
▁costumbres	-12560
▁explicarlo	-12561
▁frequently	-12562
▁personally	-12563
▁vegetarian	-12564
▁cigarrillos	-12565
▁desconocido	-12566
▁despertador	-12567
▁encontrarte	-12568
▁principales	-12569
▁consequences	-12570
).	-12571
Gan	-12572
bes	-12573
dal	-12574
icy	-12575
ift	-12576
mpl	-12577
rot	-12578
▁60	-12579
▁Av	-12580
▁Uk	-12581
Conf	-12582
Debo	-12583
alta	-12584
anim	-12585
galo	-12586
gles	-12587
ided	-12588
keys	-12589
leta	-12590
opin	-12591
pert	-12592
▁Dep	-12593
▁Ins	-12594
▁Joe	-12595
▁Sac	-12596
▁Tha	-12597
▁lif	-12598
▁net	-12599
▁pue	-12600
▁rib	-12601
▁slo	-12602
andal	-12603
cemos	-12604
esome	-12605
ganos	-12606
ieves	-12607
ingua	-12608
pices	-12609
▁Abre	-12610
▁Bach	-12611
▁Draw	-12612
▁Ense	-12613
▁Jiro	-12614
▁Jugu	-12615
▁Sand	-12616
▁Sigo	-12617
▁Stud	-12618
▁ages	-12619
▁bore	-12620
▁cert	-12621
▁chew	-12622
▁cuya	-12623
▁dame	-12624
▁enoj	-12625
▁fuel	-12626
▁guer	-12627
▁inte	-12628
▁loan	-12629
▁mend	-12630
▁mete	-12631
▁mice	-12632
▁pide	-12633
▁pila	-12634
▁proh	-12635
▁psic	-12636
▁reno	-12637
▁slee	-12638
▁swam	-12639
▁trim	-12640
▁typh	-12641
▁vaci	-12642
graphy	-12643
handed	-12644
inaria	-12645
rprete	-12646
squeda	-12647
tember	-12648
▁Ambas	-12649
▁Armen	-12650
▁Busco	-12651
▁Chris	-12652
▁Filip	-12653
▁Frank	-12654
▁Since	-12655
▁Trump	-12656
▁Venus	-12657
▁ballo	-12658
▁balls	-12659
▁burgl	-12660
▁burnt	-12661
▁cicat	-12662
▁coach	-12663
▁despa	-12664
▁fabul	-12665
▁finds	-12666
▁grifo	-12667
▁gripe	-12668
▁grues	-12669
▁joyas	-12670
▁lluvi	-12671
▁manga	-12672
▁mezqu	-12673
▁occid	-12674
▁oveja	-12675
▁pasas	-12676
▁plain	-12677
▁ruins	-12678
▁salsa	-12679
▁scale	-12680
▁shine	-12681
▁stock	-12682
▁sumin	-12683
▁tirar	-12684
▁toman	-12685
▁trunk	-12686
▁tumba	-12687
▁vital	-12688
▁wanna	-12689
Estamos	-12690
However	-12691
iciente	-12692
▁Chopin	-12693
▁Doctor	-12694
▁Promet	-12695
▁Singap	-12696
▁Suecia	-12697
▁abstra	-12698
▁campos	-12699
▁charla	-12700
▁circle	-12701
▁contag	-12702
▁cumpli	-12703
▁formul	-12704
▁grupos	-12705
▁holand	-12706
▁jugaba	-12707
▁leaned	-12708
▁mojado	-12709
▁moscas	-12710
▁ocupar	-12711
▁odiaba	-12712
▁perpet	-12713
▁presum	-12714
▁recent	-12715
▁ruidos	-12716
▁ruinas	-12717
▁sacrif	-12718
▁severe	-12719
▁sugiri	-12720
▁tardes	-12721
▁underw	-12722
▁visual	-12723
▁Charles	-12724
▁Esperar	-12725
▁Finnish	-12726
▁Segunda	-12727
▁Swedish	-12728
▁arrastr	-12729
▁campana	-12730
▁despite	-12731
▁dislike	-12732
▁drunken	-12733
▁helpful	-12734
▁lamento	-12735
▁officer	-12736
▁parking	-12737
▁pencils	-12738
▁pizarra	-12739
▁prosper	-12740
▁revenge	-12741
▁savings	-12742
▁shocked	-12743
▁spiders	-12744
▁thunder	-12745
▁tradujo	-12746
▁worries	-12747
▁Learning	-12748
▁aparecer	-12749
▁astronom	-12750
▁bisexual	-12751
▁bomberos	-12752
▁encargar	-12753
▁entreten	-12754
▁estanter	-12755
▁examples	-12756
▁gritando	-12757
▁nowadays	-12758
▁partidos	-12759
▁preferir	-12760
▁produced	-12761
▁sencilla	-12762
▁September	-12763
▁agradezco	-12764
▁colectivo	-12765
▁comercial	-12766
▁demostrar	-12767
▁deprimido	-12768
▁diferenci	-12769
▁documents	-12770
▁fijamente	-12771
▁innocence	-12772
▁obviously	-12773
▁presentar	-12774
▁controvers	-12775
▁entrenador	-12776
▁punishment	-12777
▁seriamente	-12778
▁suggestion	-12779
▁concentrate	-12780
▁development	-12781
▁involucrado	-12782
▁embarrassing	-12783
▁constantemente	-12784
▁necesariamente	-12785
Dos	-12786
God	-12787
Her	-12788
Mir	-12789
arr	-12790
cat	-12791
dea	-12792
gin	-12793
omi	-12794
vor	-12795
yal	-12796
▁21	-12797
▁Ci	-12798
:00.	-12799
Dese	-12800
NAME	-12801
Take	-12802
Tell	-12803
Vale	-12804
Vaya	-12805
bing	-12806
cert	-12807
emen	-12808
hold	-12809
ilos	-12810
izos	-12811
kind	-12812
pued	-12813
▁Dib	-12814
▁Ign	-12815
▁Nad	-12816
▁Sub	-12817
▁Vin	-12818
▁tag	-12819
Conoc	-12820
Estar	-12821
andom	-12822
ankly	-12823
chado	-12824
itain	-12825
jetas	-12826
metro	-12827
orden	-12828
▁Abra	-12829
▁Comp	-12830
▁Kong	-12831
▁Next	-12832
▁Pass	-12833
▁Yoko	-12834
▁asco	-12835
▁code	-12836
▁craw	-12837
▁duel	-12838
▁frog	-12839
▁hilo	-12840
▁hist	-12841
▁horn	-12842
▁lata	-12843
▁lawn	-12844
▁oigo	-12845
▁owns	-12846
▁rama	-12847
▁raza	-12848
▁rect	-12849
▁stab	-12850
▁tear	-12851
▁tela	-12852
▁ther	-12853
▁twin	-12854
▁vais	-12855
▁vist	-12856
Fuiste	-12857
Though	-12858
avirus	-12859
cierto	-12860
▁Comet	-12861
▁Condu	-12862
▁David	-12863
▁Elige	-12864
▁Enjoy	-12865
▁James	-12866
▁YouTu	-12867
▁baked	-12868
▁casta	-12869
▁cazar	-12870
▁charl	-12871
▁click	-12872
▁desen	-12873
▁desor	-12874
▁espec	-12875
▁mango	-12876
▁misle	-12877
▁nephe	-12878
▁ocupa	-12879
▁opens	-12880
▁orbit	-12881
▁paisa	-12882
▁plazo	-12883
▁recog	-12884
▁simpl	-12885
▁stake	-12886
▁stret	-12887
▁tense	-12888
▁tigre	-12889
▁topic	-12890
▁valla	-12891
Encontr	-12892
leyball	-12893
▁August	-12894
▁Discut	-12895
▁Mercur	-12896
▁Poland	-12897
▁Recuer	-12898
▁agente	-12899
▁astero	-12900
▁career	-12901
▁cargar	-12902
▁cement	-12903
▁corona	-12904
▁creado	-12905
▁despid	-12906
▁ejecut	-12907
▁events	-12908
▁figura	-12909
▁gracia	-12910
▁groups	-12911
▁guarda	-12912
▁intrig	-12913
▁invers	-12914
▁laughs	-12915
▁ninety	-12916
▁proces	-12917
▁propag	-12918
▁random	-12919
▁rising	-12920
▁rotten	-12921
▁sitios	-12922
▁surviv	-12923
▁tabaco	-12924
▁tocaba	-12925
appiness	-12926
▁Britain	-12927
▁Cuidado	-12928
▁Durante	-12929
▁Hicimos	-12930
▁Vietnam	-12931
▁alemana	-12932
▁apetito	-12933
▁closest	-12934
▁console	-12935
▁crashed	-12936
▁cuchara	-12937
▁detalle	-12938
▁diablos	-12939
▁distrib	-12940
▁element	-12941
▁escrita	-12942
▁excepci	-12943
▁figured	-12944
▁insulto	-12945
▁maneras	-12946
▁manipul	-12947
▁mejilla	-12948
▁monster	-12949
▁papeles	-12950
▁passing	-12951
▁permiti	-12952
▁prescri	-12953
▁presion	-12954
▁puestos	-12955
▁reempla	-12956
▁regards	-12957
▁replied	-12958
▁schools	-12959
▁slipped	-12960
▁unicorn	-12961
▁vueltas	-12962
nicamente	-12963
▁abundant	-12964
▁atrasado	-12965
▁bailando	-12966
▁basement	-12967
▁ceremony	-12968
▁comieron	-12969
▁creative	-12970
▁defeated	-12971
▁disaster	-12972
▁divorcio	-12973
▁empiezan	-12974
▁encontra	-12975
▁espaldas	-12976
▁estudias	-12977
▁generaci	-12978
▁ingleses	-12979
▁overcome	-12980
▁resuelto	-12981
▁comprarme	-12982
▁compraron	-12983
▁comprarse	-12984
▁escritura	-12985
▁fracasado	-12986
▁materials	-12987
▁noviembre	-12988
▁surrender	-12989
▁vegetales	-12990
▁Cualquiera	-12991
▁blackboard	-12992
▁decidieron	-12993
▁demasiadas	-12994
▁distracted	-12995
▁downstairs	-12996
▁esclavitud	-12997
▁generation	-12998
▁impression	-12999
▁interesada	-13000
▁observando	-13001
▁principles	-13002
▁prisionero	-13003
▁throughout	-13004
▁toothpaste	-13005
▁vecindario	-13006
▁volleyball	-13007
▁actividades	-13008
▁capacidades	-13009
▁crecimiento	-13010
▁necessarily	-13011
▁traditional	-13012
▁computadoras	-13013
▁acondicionado	-13014
fu	-13015
)."	-13016
Nada	-13017
amin	-13018
bias	-13019
jeme	-13020
lbum	-13021
orce	-13022
podr	-13023
rome	-13024
swer	-13025
ugas	-13026
utes	-13027
veme	-13028
vido	-13029
▁Ech	-13030
▁FBI	-13031
▁Ret	-13032
▁Rob	-13033
▁Str	-13034
▁Sum	-13035
▁Suz	-13036
▁Uni	-13037
▁Win	-13038
▁bru	-13039
▁buf	-13040
▁lux	-13041
asted	-13042
fonos	-13043
gular	-13044
heart	-13045
iland	-13046
ngulo	-13047
ntese	-13048
oster	-13049
▁Bang	-13050
▁Nice	-13051
▁Resp	-13052
▁Work	-13053
▁acar	-13054
▁acts	-13055
▁aloj	-13056
▁athe	-13057
▁bags	-13058
▁bala	-13059
▁caut	-13060
▁chav	-13061
▁espl	-13062
▁fans	-13063
▁fier	-13064
▁fits	-13065
▁fumo	-13066
▁genu	-13067
▁jira	-13068
▁lujo	-13069
▁mide	-13070
▁nail	-13071
▁palo	-13072
▁pige	-13073
▁prud	-13074
▁recl	-13075
▁sequ	-13076
▁sets	-13077
▁unhe	-13078
Cierra	-13079
Doctor	-13080
ground	-13081
hether	-13082
iembre	-13083
lingua	-13084
▁Asumo	-13085
▁Brian	-13086
▁Bruno	-13087
▁Hello	-13088
▁Llovi	-13089
▁abide	-13090
▁agudo	-13091
▁alfil	-13092
▁beben	-13093
▁bruja	-13094
▁categ	-13095
▁chann	-13096
▁crown	-13097
▁desta	-13098
▁dolph	-13099
▁eligi	-13100
▁escog	-13101
▁faint	-13102
▁fifth	-13103
▁lobos	-13104
▁loses	-13105
▁monos	-13106
▁mosca	-13107
▁nieto	-13108
▁resid	-13109
▁salen	-13110
▁sheet	-13111
▁trade	-13112
▁utter	-13113
▁veloz	-13114
instein	-13115
▁Basque	-13116
▁Buenos	-13117
▁Muslim	-13118
▁Sweden	-13119
▁Valent	-13120
▁Yamada	-13121
▁advise	-13122
▁circul	-13123
▁cogido	-13124
▁deudas	-13125
▁diente	-13126
▁enjoys	-13127
▁estamp	-13128
▁golden	-13129
▁herman	-13130
▁hockey	-13131
▁inmigr	-13132
▁jugado	-13133
▁llenos	-13134
▁packed	-13135
▁pintor	-13136
▁pounds	-13137
▁proved	-13138
▁quinto	-13139
▁recipe	-13140
▁ruedas	-13141
▁sueles	-13142
▁terren	-13143
▁tiende	-13144
▁waiter	-13145
▁Michael	-13146
▁Muslims	-13147
▁YouTube	-13148
▁acceler	-13149
▁aparcar	-13150
▁apuesto	-13151
▁avoided	-13152
▁bebidas	-13153
▁casarte	-13154
▁cepillo	-13155
▁charlar	-13156
▁compass	-13157
▁concier	-13158
▁conduct	-13159
▁dejarlo	-13160
▁destiny	-13161
▁dresses	-13162
▁emborra	-13163
▁evoluci	-13164
▁founded	-13165
▁hurting	-13166
▁idiotas	-13167
▁invenci	-13168
▁operaci	-13169
▁painter	-13170
▁persegu	-13171
▁pockets	-13172
▁rapidly	-13173
▁reflect	-13174
▁rescued	-13175
▁sientas	-13176
▁typhoon	-13177
sicamente	-13178
▁aprovech	-13179
▁ayudando	-13180
▁concepto	-13181
▁consigue	-13182
▁farmacia	-13183
▁lastimar	-13184
▁manifest	-13185
▁monstruo	-13186
▁repeated	-13187
▁searched	-13188
▁vendedor	-13189
▁visitors	-13190
ortunately	-13191
▁accordion	-13192
▁adventure	-13193
▁atractivo	-13194
▁bookstore	-13195
▁complacer	-13196
▁comprarle	-13197
▁currently	-13198
▁described	-13199
▁developed	-13200
▁discovery	-13201
▁horizonte	-13202
▁mejorando	-13203
▁persuaded	-13204
▁preferida	-13205
▁preparada	-13206
▁pronuncia	-13207
▁recuerdas	-13208
▁searching	-13209
▁complaints	-13210
▁contradict	-13211
▁encouraged	-13212
▁orgullosos	-13213
▁preguntado	-13214
▁encontrarlo	-13215
▁trescientos	-13216
▁computadores	-13217
▁cuidadosamente	-13218
!,	-13219
6,	-13220
Ir	-13221
lv	-13222
Two	-13223
ads	-13224
jen	-13225
▁28	-13226
▁35	-13227
▁5.	-13228
▁80	-13229
▁AD	-13230
▁By	-13231
▁Du	-13232
▁Jo	-13233
▁UF	-13234
Life	-13235
aros	-13236
edge	-13237
elet	-13238
iner	-13239
jban	-13240
lymp	-13241
ojos	-13242
ondr	-13243
onym	-13244
pira	-13245
tled	-13246
wood	-13247
▁Cop	-13248
▁Cut	-13249
▁Eve	-13250
▁Mel	-13251
▁Mex	-13252
▁Ram	-13253
▁Sec	-13254
▁Sor	-13255
▁aso	-13256
▁ath	-13257
▁bum	-13258
▁gam	-13259
▁lej	-13260
▁lid	-13261
▁sew	-13262
▁tid	-13263
▁vej	-13264
estic	-13265
iciar	-13266
ndalo	-13267
oring	-13268
sfera	-13269
tesis	-13270
vedad	-13271
▁Amaz	-13272
▁Cerr	-13273
▁Sara	-13274
▁Well	-13275
▁Year	-13276
▁bene	-13277
▁fulf	-13278
▁gang	-13279
▁lavo	-13280
▁mort	-13281
▁rana	-13282
▁roca	-13283
▁sinf	-13284
▁suck	-13285
▁symp	-13286
▁tape	-13287
▁tiro	-13288
icardo	-13289
▁Acept	-13290
▁Buddh	-13291
▁Henry	-13292
▁Queen	-13293
▁Sobre	-13294
▁austr	-13295
▁broom	-13296
▁fried	-13297
▁hydro	-13298
▁knees	-13299
▁magia	-13300
▁marco	-13301
▁obses	-13302
▁pairs	-13303
▁panda	-13304
▁ramas	-13305
▁ratas	-13306
▁repug	-13307
▁seeds	-13308
▁shave	-13309
▁signs	-13310
▁tends	-13311
▁tools	-13312
▁types	-13313
▁whale	-13314
▁windy	-13315
ichever	-13316
working	-13317
▁Modern	-13318
▁advers	-13319
▁agrees	-13320
▁approp	-13321
▁aterri	-13322
▁dollar	-13323
▁downlo	-13324
▁enojar	-13325
▁evento	-13326
▁expuls	-13327
▁fields	-13328
▁framed	-13329
▁humili	-13330
▁jungle	-13331
▁loving	-13332
▁maneja	-13333
▁mechan	-13334
▁metido	-13335
▁mezcla	-13336
▁navide	-13337
▁option	-13338
▁ovejas	-13339
▁paliza	-13340
▁planea	-13341
▁potato	-13342
▁quieto	-13343
▁resbal	-13344
▁reunir	-13345
▁sorrow	-13346
▁wasted	-13347
▁weighs	-13348
Actually	-13349
ceptable	-13350
endieron	-13351
▁Consegu	-13352
▁Necesit	-13353
▁Ricardo	-13354
▁aggress	-13355
▁agregar	-13356
▁annoyed	-13357
▁apology	-13358
▁applied	-13359
▁beating	-13360
▁closely	-13361
▁coreano	-13362
▁cuantos	-13363
▁defensa	-13364
▁duermen	-13365
▁entendi	-13366
▁entorno	-13367
▁fastidi	-13368
▁furioso	-13369
▁heavily	-13370
▁moments	-13371
▁nations	-13372
▁parcial	-13373
▁picking	-13374
▁quarrel	-13375
▁vuelven	-13376
▁whistle	-13377
Entiendes	-13378
▁December	-13379
▁Hablemos	-13380
▁Recuerda	-13381
▁abstract	-13382
▁addicted	-13383
▁addition	-13384
▁anteojos	-13385
▁appetite	-13386
▁aventura	-13387
▁ballenas	-13388
▁captured	-13389
▁cocinera	-13390
▁constant	-13391
▁disagree	-13392
▁distinta	-13393
▁distinto	-13394
▁doctores	-13395
▁llamaron	-13396
▁llevaron	-13397
▁mariposa	-13398
▁peleando	-13399
▁preciosa	-13400
▁proposed	-13401
▁protecci	-13402
▁quejando	-13403
▁relacion	-13404
▁respects	-13405
▁revoluci	-13406
▁specific	-13407
▁subiendo	-13408
▁suitable	-13409
▁tristeza	-13410
▁ahorrando	-13411
▁butterfly	-13412
▁cambiando	-13413
▁contratar	-13414
▁funcionan	-13415
▁increased	-13416
▁intereses	-13417
▁interests	-13418
▁irregular	-13419
▁necesites	-13420
▁relatives	-13421
▁servicios	-13422
▁sobrevivi	-13423
▁apparently	-13424
▁collecting	-13425
▁determined	-13426
▁enamorados	-13427
▁incorrecta	-13428
▁peligrosas	-13429
▁scientists	-13430
▁septiembre	-13431
▁surprising	-13432
▁composition	-13433
▁discutiendo	-13434
▁intenciones	-13435
▁suficientes	-13436
▁desagradable	-13437
▁independencia	-13438
▁oportunidades	-13439
▁descubrimiento	-13440
▁repentinamente	-13441
3,	-13442
Us	-13443
gh	-13444
Mis	-13445
Pro	-13446
Uno	-13447
alm	-13448
hof	-13449
lex	-13450
rlo	-13451
sle	-13452
thy	-13453
▁$1	-13454
▁CO	-13455
▁Od	-13456
▁ye	-13457
Llam	-13458
Sois	-13459
Will	-13460
anja	-13461
atur	-13462
cere	-13463
cipl	-13464
elly	-13465
enar	-13466
etre	-13467
inan	-13468
mans	-13469
oded	-13470
play	-13471
quet	-13472
udar	-13473
▁Art	-13474
▁CDs	-13475
▁Edu	-13476
▁Env	-13477
▁Kim	-13478
▁Nue	-13479
▁Obs	-13480
▁Ren	-13481
▁Too	-13482
▁Val	-13483
▁aid	-13484
▁alz	-13485
▁atm	-13486
▁bee	-13487
▁cob	-13488
▁gob	-13489
▁laz	-13490
▁lum	-13491
▁obo	-13492
▁ram	-13493
▁sch	-13494
▁shr	-13495
▁spr	-13496
Vendr	-13497
althy	-13498
curri	-13499
decir	-13500
enter	-13501
issed	-13502
iterr	-13503
lulas	-13504
quill	-13505
recia	-13506
sever	-13507
stick	-13508
uales	-13509
ulaci	-13510
uliar	-13511
▁Adiv	-13512
▁Bush	-13513
▁Food	-13514
▁Four	-13515
▁Hang	-13516
▁Long	-13517
▁Mere	-13518
▁Pues	-13519
▁Shin	-13520
▁apur	-13521
▁bees	-13522
▁fame	-13523
▁fled	-13524
▁gota	-13525
▁hart	-13526
▁herr	-13527
▁inse	-13528
▁item	-13529
▁leng	-13530
▁orqu	-13531
▁owes	-13532
▁qual	-13533
▁sigo	-13534
▁triv	-13535
▁vete	-13536
▁vice	-13537
Intent	-13538
ctimas	-13539
ctrico	-13540
enteen	-13541
grafos	-13542
idores	-13543
teries	-13544
thirty	-13545
vision	-13546
▁Contr	-13547
▁Extra	-13548
▁Guess	-13549
▁Hacer	-13550
▁Marco	-13551
▁Obama	-13552
▁Olymp	-13553
▁Reino	-13554
▁Revol	-13555
▁Suena	-13556
▁adver	-13557
▁antig	-13558
▁bloom	-13559
▁bride	-13560
▁ciega	-13561
▁coast	-13562
▁dolls	-13563
▁heads	-13564
▁homes	-13565
▁intim	-13566
▁pides	-13567
▁puebl	-13568
▁rompe	-13569
▁seria	-13570
▁stamp	-13571
▁suits	-13572
▁unrel	-13573
▁velas	-13574
▁yogur	-13575
Algunas	-13576
amenhof	-13577
ionship	-13578
▁Saturn	-13579
▁Veamos	-13580
▁aborto	-13581
▁adquir	-13582
▁amamos	-13583
▁ayudes	-13584
▁bitten	-13585
▁brilla	-13586
▁camina	-13587
▁ciervo	-13588
▁divirt	-13589
▁equili	-13590
▁excurs	-13591
▁explot	-13592
▁farmer	-13593
▁fourth	-13594
▁frutos	-13595
▁inspir	-13596
▁joined	-13597
▁llegan	-13598
▁manner	-13599
▁misses	-13600
▁obsequ	-13601
▁orient	-13602
▁purple	-13603
▁recort	-13604
▁rescue	-13605
▁states	-13606
▁sunset	-13607
▁trates	-13608
▁vencer	-13609
idamente	-13610
▁Llevaba	-13611
▁Polonia	-13612
▁Quieren	-13613
▁Reading	-13614
▁aparato	-13615
▁awesome	-13616
▁boiling	-13617
▁collaps	-13618
▁compuls	-13619
▁condujo	-13620
▁contagi	-13621
▁cristal	-13622
▁cuestan	-13623
▁delayed	-13624
▁deprisa	-13625
▁diversi	-13626
▁estante	-13627
▁fainted	-13628
▁letting	-13629
▁menores	-13630
▁pasarme	-13631
▁ponerlo	-13632
▁prestas	-13633
▁privada	-13634
▁prometo	-13635
▁shaking	-13636
▁trataba	-13637
Generally	-13638
▁climbing	-13639
▁cumplido	-13640
▁curtains	-13641
▁downtown	-13642
▁enfrente	-13643
▁escuelas	-13644
▁evidente	-13645
▁forehead	-13646
▁function	-13647
▁incompet	-13648
▁llegando	-13649
▁llevarse	-13650
▁mejorado	-13651
▁nerviosa	-13652
▁peculiar	-13653
▁precioso	-13654
▁precious	-13655
▁primeras	-13656
▁quebrado	-13657
▁regarded	-13658
▁reservar	-13659
▁responde	-13660
▁struggle	-13661
▁terribly	-13662
▁weekends	-13663
▁Canadians	-13664
▁abolished	-13665
▁audiencia	-13666
▁bolsillos	-13667
▁celebrate	-13668
▁ceremonia	-13669
▁coleccion	-13670
▁convierte	-13671
▁estaremos	-13672
▁evolution	-13673
▁informado	-13674
▁invitaron	-13675
▁lightning	-13676
▁aprovechar	-13677
▁comenzaron	-13678
▁conocieron	-13679
▁estacionar	-13680
▁estaciones	-13681
▁incorrecto	-13682
▁industrial	-13683
▁mantenerse	-13684
▁representa	-13685
▁suicidarse	-13686
▁established	-13687
▁preocupados	-13688
▁independence	-13689
▁posibilidades	-13690
▁principalmente	-13691
Ab	-13692
App	-13693
elp	-13694
ipe	-13695
mal	-13696
reg	-13697
▁22	-13698
▁54	-13699
▁Id	-13700
▁Ok	-13701
▁wa	-13702
Adem	-13703
Bien	-13704
Buen	-13705
Have	-13706
John	-13707
Toda	-13708
agle	-13709
ashi	-13710
cast	-13711
cile	-13712
cord	-13713
gers	-13714
give	-13715
long	-13716
took	-13717
ucky	-13718
uded	-13719
uoso	-13720
▁Coc	-13721
▁Gra	-13722
▁Hot	-13723
▁Moz	-13724
▁Nar	-13725
▁Tar	-13726
▁Var	-13727
▁Wil	-13728
▁Yes	-13729
▁coj	-13730
▁eti	-13731
▁lab	-13732
▁lip	-13733
▁pit	-13734
Tambi	-13735
banas	-13736
eters	-13737
inete	-13738
iscos	-13739
laced	-13740
nails	-13741
ntalo	-13742
onato	-13743
owing	-13744
templ	-13745
utter	-13746
▁Deje	-13747
▁Deme	-13748
▁Duer	-13749
▁Leer	-13750
▁Once	-13751
▁Vend	-13752
▁Walk	-13753
▁West	-13754
▁afil	-13755
▁cens	-13756
▁dear	-13757
▁east	-13758
▁ench	-13759
▁haci	-13760
▁keen	-13761
▁mild	-13762
▁murm	-13763
▁nost	-13764
▁olas	-13765
▁palm	-13766
▁plus	-13767
▁purs	-13768
▁root	-13769
▁sank	-13770
▁sigh	-13771
▁sits	-13772
▁toro	-13773
Escuch	-13774
blings	-13775
dalena	-13776
ements	-13777
igamos	-13778
iously	-13779
itious	-13780
uyendo	-13781
▁Acaba	-13782
▁Break	-13783
▁Claro	-13784
▁Desay	-13785
▁Entre	-13786
▁Haven	-13787
▁Jorge	-13788
▁Light	-13789
▁Llama	-13790
▁Monte	-13791
▁Right	-13792
▁Roger	-13793
▁Viene	-13794
▁Young	-13795
▁aprop	-13796
▁arrow	-13797
▁astro	-13798
▁avanz	-13799
▁bones	-13800
▁caros	-13801
▁casco	-13802
▁cells	-13803
▁cirug	-13804
▁crece	-13805
▁curar	-13806
▁delin	-13807
▁empap	-13808
▁emper	-13809
▁escas	-13810
▁grade	-13811
▁grado	-13812
▁indul	-13813
▁pausa	-13814
▁pelot	-13815
▁pista	-13816
▁pluck	-13817
▁punct	-13818
▁rubio	-13819
▁slave	-13820
▁snack	-13821
▁stays	-13822
▁surge	-13823
▁sweep	-13824
▁tasty	-13825
▁track	-13826
▁tuber	-13827
▁vapor	-13828
Instead	-13829
ability	-13830
▁Darwin	-13831
▁Either	-13832
▁Escrib	-13833
▁Forget	-13834
▁Miller	-13835
▁Planeo	-13836
▁Romans	-13837
▁acepta	-13838
▁activo	-13839
▁behavi	-13840
▁borrar	-13841
▁consta	-13842
▁corpor	-13843
▁degree	-13844
▁devolv	-13845
▁escoba	-13846
▁esforz	-13847
▁faltan	-13848
▁hearts	-13849
▁liquid	-13850
▁pasara	-13851
▁patria	-13852
▁petici	-13853
▁piense	-13854
▁pineap	-13855
▁prayed	-13856
▁prendi	-13857
▁recogi	-13858
▁refuge	-13859
▁rivers	-13860
▁sellos	-13861
▁sigues	-13862
▁statue	-13863
▁sustit	-13864
▁tortur	-13865
▁turkey	-13866
estimate	-13867
▁Escocia	-13868
▁Germans	-13869
▁Mexican	-13870
▁acostar	-13871
▁anticip	-13872
▁camisas	-13873
▁casaron	-13874
▁connect	-13875
▁cuentos	-13876
▁dormida	-13877
▁embassy	-13878
▁estatua	-13879
▁finales	-13880
▁gastado	-13881
▁greatly	-13882
▁impedir	-13883
▁instant	-13884
▁jumping	-13885
▁keeping	-13886
▁lavando	-13887
▁minimum	-13888
▁pressed	-13889
▁section	-13890
▁setenta	-13891
▁soledad	-13892
▁travels	-13893
▁usuario	-13894
▁vestida	-13895
▁wealthy	-13896
▁Catholic	-13897
▁Language	-13898
▁aceptado	-13899
▁activity	-13900
▁adecuada	-13901
▁billetes	-13902
▁caminaba	-13903
▁cheerful	-13904
▁conquist	-13905
▁contarle	-13906
▁cuestion	-13907
▁customer	-13908
▁desorden	-13909
▁faithful	-13910
▁happiest	-13911
▁included	-13912
▁llamamos	-13913
▁necesite	-13914
▁novelist	-13915
▁offended	-13916
▁ordinary	-13917
▁perdimos	-13918
▁perezoso	-13919
▁podremos	-13920
▁quejarse	-13921
▁supplies	-13922
▁troubles	-13923
▁tuvieras	-13924
iertamente	-13925
▁Estaremos	-13926
▁assistant	-13927
▁breathing	-13928
▁creciendo	-13929
▁criticism	-13930
▁encuentre	-13931
▁forgetful	-13932
▁ingeniero	-13933
▁irrespons	-13934
▁memorizar	-13935
▁optimista	-13936
▁permaneci	-13937
▁pesadilla	-13938
▁practical	-13939
▁preguntes	-13940
▁screaming	-13941
▁seventeen	-13942
▁treatment	-13943
▁aficionado	-13944
▁aggressive	-13945
▁approached	-13946
▁atmosphere	-13947
▁diecisiete	-13948
▁estructura	-13949
▁estuvieras	-13950
▁fascinante	-13951
▁formulario	-13952
▁organizaci	-13953
▁peligrosos	-13954
▁solucionar	-13955
▁appropriate	-13956
▁atentamente	-13957
▁combustible	-13958
▁coronavirus	-13959
▁interpreter	-13960
▁sufrimiento	-13961
▁tratamiento	-13962
▁medicamentos	-13963
▁separatistas	-13964
▁Unfortunately	-13965
▁impresionante	-13966
0,	-13967
Mu	-13968
-19	-13969
Tal	-13970
adi	-13971
elt	-13972
gic	-13973
how	-13974
roc	-13975
sey	-13976
uma	-13977
▁Ox	-13978
▁Sl	-13979
▁ec	-13980
Cual	-13981
Prim	-13982
Yeah	-13983
alas	-13984
avor	-13985
corn	-13986
crib	-13987
dele	-13988
dill	-13989
enti	-13990
fall	-13991
ibol	-13992
idia	-13993
like	-13994
odka	-13995
olas	-13996
onar	-13997
oral	-13998
peta	-13999
reas	-14000
riel	-14001
what	-14002
▁202	-14003
▁ADN	-14004
▁Arr	-14005
▁Boy	-14006
▁Cab	-14007
▁Pra	-14008
▁Zel	-14009
▁ank	-14010
▁bug	-14011
▁buz	-14012
▁cem	-14013
▁gaz	-14014
▁kan	-14015
▁lam	-14016
▁spy	-14017
▁tob	-14018
▁uni	-14019
▁unn	-14020
angle	-14021
araje	-14022
ctora	-14023
garse	-14024
igned	-14025
inals	-14026
inder	-14027
nante	-14028
ordos	-14029
poner	-14030
rmino	-14031
undry	-14032
veral	-14033
yment	-14034
▁Asum	-14035
▁Expl	-14036
▁Ford	-14037
▁Jews	-14038
▁Llor	-14039
▁Luis	-14040
▁Repu	-14041
▁afir	-14042
▁azar	-14043
▁caza	-14044
▁chef	-14045
▁desl	-14046
▁echa	-14047
▁edge	-14048
▁embr	-14049
▁emph	-14050
▁ende	-14051
▁enth	-14052
▁enve	-14053
▁fals	-14054
▁goss	-14055
▁huir	-14056
▁maes	-14057
▁ocas	-14058
▁olla	-14059
▁orch	-14060
▁otor	-14061
▁pate	-14062
▁pega	-14063
▁pica	-14064
▁rayo	-14065
▁rook	-14066
▁ruid	-14067
▁sana	-14068
▁siem	-14069
▁sins	-14070
▁tier	-14071
▁unir	-14072
Espera	-14073
People	-14074
Porque	-14075
edades	-14076
ipedia	-14077
leibol	-14078
mplice	-14079
primir	-14080
uskera	-14081
▁Deseo	-14082
▁Human	-14083
▁Scott	-14084
▁Sleep	-14085
▁Teach	-14086
▁Titan	-14087
▁Tomar	-14088
▁alert	-14089
▁apaga	-14090
▁block	-14091
▁debts	-14092
▁femen	-14093
▁flows	-14094
▁hueso	-14095
▁inhab	-14096
▁islam	-14097
▁logic	-14098
▁lover	-14099
▁nacer	-14100
▁oreja	-14101
▁pones	-14102
▁prost	-14103
▁quant	-14104
▁recon	-14105
▁regar	-14106
▁retro	-14107
▁risks	-14108
▁roads	-14109
▁rollo	-14110
▁scarf	-14111
▁sobor	-14112
▁steps	-14113
▁sting	-14114
▁sympt	-14115
▁vodka	-14116
▁zanja	-14117
Primero	-14118
vertido	-14119
viously	-14120
▁Answer	-14121
▁Better	-14122
▁Consid	-14123
▁Edison	-14124
▁Hablas	-14125
▁Hilton	-14126
▁Little	-14127
▁Suzuki	-14128
▁Univer	-14129
▁abrazo	-14130
▁amenaz	-14131
▁aplica	-14132
▁barber	-14133
▁cables	-14134
▁cherry	-14135
▁descal	-14136
▁elabor	-14137
▁ending	-14138
▁equivo	-14139
▁exceso	-14140
▁falsas	-14141
▁fingir	-14142
▁fueran	-14143
▁gastar	-14144
▁gobier	-14145
▁griega	-14146
▁huesos	-14147
▁injust	-14148
▁juntas	-14149
▁lavado	-14150
▁learns	-14151
▁length	-14152
▁mascar	-14153
▁passes	-14154
▁pastor	-14155
▁patrio	-14156
▁pecado	-14157
▁pupils	-14158
▁refugi	-14159
▁sabios	-14160
▁seated	-14161
▁smiles	-14162
▁sobres	-14163
▁tasted	-14164
▁timbre	-14165
▁transg	-14166
▁trozos	-14167
▁verlos	-14168
▁vuelvo	-14169
▁zapato	-14170
Tomorrow	-14171
Wherever	-14172
onscious	-14173
▁Pregunt	-14174
▁aspirin	-14175
▁blocked	-14176
▁cleared	-14177
▁confuso	-14178
▁conozca	-14179
▁conquer	-14180
▁consume	-14181
▁cortina	-14182
▁crecido	-14183
▁cuantas	-14184
▁deliber	-14185
▁descend	-14186
▁destruy	-14187
▁devoted	-14188
▁dolores	-14189
▁enviado	-14190
▁equipos	-14191
▁escolar	-14192
▁escribo	-14193
▁esperas	-14194
▁heridos	-14195
▁huellas	-14196
▁infeliz	-14197
▁jewelry	-14198
▁laundry	-14199
▁mankind	-14200
▁miraron	-14201
▁motivos	-14202
▁pajamas	-14203
▁peanuts	-14204
▁pedazos	-14205
▁ponerle	-14206
▁praying	-14207
▁produjo	-14208
▁recover	-14209
▁regrese	-14210
▁seventy	-14211
▁sincere	-14212
▁Mantente	-14213
▁Scotland	-14214
▁absolute	-14215
▁arruinar	-14216
▁backyard	-14217
▁contarte	-14218
▁contexto	-14219
▁counting	-14220
▁critical	-14221
▁deceived	-14222
▁directly	-14223
▁disculpa	-14224
▁expenses	-14225
▁gramatic	-14226
▁illusion	-14227
▁inconsci	-14228
▁industry	-14229
▁infinite	-14230
▁italiana	-14231
▁kilogram	-14232
▁laughter	-14233
▁maquilla	-14234
▁mathemat	-14235
▁millions	-14236
▁naciones	-14237
▁negative	-14238
▁patients	-14239
▁planeado	-14240
▁previsto	-14241
▁reliable	-14242
▁semillas	-14243
▁sentarte	-14244
▁tarjetas	-14245
▁transpar	-14246
cticamente	-14247
▁Estuvimos	-14248
▁Magdalena	-14249
▁arquitect	-14250
▁bothering	-14251
▁completed	-14252
▁corrected	-14253
▁cristiano	-14254
▁delivered	-14255
▁despedida	-14256
▁elephants	-14257
▁gradually	-14258
▁mariposas	-14259
▁multiling	-14260
▁novelista	-14261
▁organized	-14262
▁predicted	-14263
▁prisoners	-14264
▁sacerdote	-14265
▁stupidity	-14266
▁visitarme	-14267
▁aumentando	-14268
▁emocionado	-14269
▁incredibly	-14270
▁pesadillas	-14271
▁practicing	-14272
▁pretending	-14273
▁sugerencia	-14274
▁unreliable	-14275
▁usualmente	-14276
▁voluntario	-14277
▁outstanding	-14278
▁preocuparte	-14279
▁restaurants	-14280
Afortunadamente	-14281
8,	-14282
?,	-14283
rb	-14284
Han	-14285
Men	-14286
Pap	-14287
don	-14288
gro	-14289
imp	-14290
iot	-14291
lta	-14292
sen	-14293
uya	-14294
▁26	-14295
▁Ka	-14296
Shut	-14297
Then	-14298
agas	-14299
aire	-14300
alog	-14301
cate	-14302
chup	-14303
down	-14304
emor	-14305
erve	-14306
esar	-14307
eses	-14308
food	-14309
iers	-14310
igur	-14311
izab	-14312
know	-14313
lete	-14314
mare	-14315
mind	-14316
osto	-14317
quis	-14318
rich	-14319
rmin	-14320
talo	-14321
tear	-14322
walk	-14323
▁Den	-14324
▁Fre	-14325
▁Met	-14326
▁Pac	-14327
▁Sch	-14328
▁UFO	-14329
▁apt	-14330
▁awk	-14331
▁bak	-14332
▁ecl	-14333
▁org	-14334
▁owl	-14335
▁rog	-14336
▁syn	-14337
Estud	-14338
Would	-14339
aland	-14340
aling	-14341
ctico	-14342
ecess	-14343
graci	-14344
guila	-14345
ijing	-14346
itada	-14347
lagos	-14348
ocado	-14349
orros	-14350
place	-14351
quido	-14352
todos	-14353
uelva	-14354
ugged	-14355
viles	-14356
▁Bebe	-14357
▁Kids	-14358
▁Sali	-14359
▁Trae	-14360
▁acid	-14361
▁apri	-14362
▁blog	-14363
▁bowl	-14364
▁cobr	-14365
▁dram	-14366
▁dwar	-14367
▁infr	-14368
▁pato	-14369
▁pedo	-14370
▁pion	-14371
▁sche	-14372
▁stir	-14373
▁suff	-14374
▁tapa	-14375
▁tore	-14376
▁toss	-14377
▁tron	-14378
▁tune	-14379
▁zero	-14380
Vienes	-14381
atural	-14382
cience	-14383
imming	-14384
onario	-14385
phones	-14386
rminos	-14387
sticos	-14388
viendo	-14389
▁Agrad	-14390
▁Carol	-14391
▁Clean	-14392
▁Justo	-14393
▁Miles	-14394
▁Nuevo	-14395
▁Raise	-14396
▁Stand	-14397
▁Vendr	-14398
▁abord	-14399
▁accur	-14400
▁agent	-14401
▁alleg	-14402
▁anime	-14403
▁armed	-14404
▁asoci	-14405
▁aston	-14406
▁attic	-14407
▁balde	-14408
▁carac	-14409
▁conex	-14410
▁cries	-14411
▁diagn	-14412
▁eagle	-14413
▁erase	-14414
▁focus	-14415
▁gases	-14416
▁grasa	-14417
▁gratu	-14418
▁grows	-14419
▁haunt	-14420
▁holes	-14421
▁marzo	-14422
▁medal	-14423
▁multa	-14424
▁niega	-14425
▁obten	-14426
▁pasos	-14427
▁perra	-14428
▁sabia	-14429
▁salty	-14430
▁shade	-14431
▁shown	-14432
▁sufre	-14433
▁suyos	-14434
▁symph	-14435
▁tatto	-14436
▁taxis	-14437
▁temen	-14438
▁temor	-14439
▁thumb	-14440
▁venen	-14441
▁viaja	-14442
Nothing	-14443
izabeth	-14444
▁Catalu	-14445
▁Soviet	-14446
▁absorb	-14447
▁abused	-14448
▁acaban	-14449
▁addict	-14450
▁agosto	-14451
▁argent	-14452
▁ayudan	-14453
▁bacter	-14454
▁barbar	-14455
▁breast	-14456
▁cocodr	-14457
▁counts	-14458
▁decent	-14459
▁descom	-14460
▁device	-14461
▁dragon	-14462
▁earned	-14463
▁emphas	-14464
▁flecha	-14465
▁fritas	-14466
▁growth	-14467
▁heater	-14468
▁humild	-14469
▁infect	-14470
▁insect	-14471
▁integr	-14472
▁llames	-14473
▁llegas	-14474
▁magnet	-14475
▁mascot	-14476
▁motion	-14477
▁onions	-14478
▁presup	-14479
▁remote	-14480
▁smokes	-14481
▁smooth	-14482
▁susurr	-14483
▁visits	-14484
▁wander	-14485
▁warmer	-14486
▁washes	-14487
ndwiches	-14488
▁Beijing	-14489
▁Descubr	-14490
▁Trabaja	-14491
▁alcance	-14492
▁ansioso	-14493
▁arrives	-14494
▁awkward	-14495
▁ballena	-14496
▁cambian	-14497
▁castigo	-14498
▁catorce	-14499
▁comemos	-14500
▁cuentes	-14501
▁echarle	-14502
▁equally	-14503
▁excusas	-14504
▁exitoso	-14505
▁galaxia	-14506
▁hombros	-14507
▁injusto	-14508
▁inneces	-14509
▁insisti	-14510
▁ketchup	-14511
▁leyenda	-14512
▁lloraba	-14513
▁mareado	-14514
▁medalla	-14515
▁methods	-14516
▁militar	-14517
▁navidad	-14518
▁olvidad	-14519
▁peeling	-14520
▁persigu	-14521
▁popcorn	-14522
▁postura	-14523
▁replace	-14524
▁reporte	-14525
▁sharpen	-14526
▁sixteen	-14527
▁sonando	-14528
▁traslad	-14529
▁veremos	-14530
▁Mediterr	-14531
▁Zamenhof	-14532
▁adivinar	-14533
▁alimento	-14534
▁although	-14535
▁aprobado	-14536
▁arrodill	-14537
▁artistas	-14538
▁ayudarla	-14539
▁cachorro	-14540
▁camarero	-14541
▁celebrar	-14542
▁contrary	-14543
▁declared	-14544
▁discount	-14545
▁enormous	-14546
▁esencial	-14547
▁expertos	-14548
▁lamentar	-14549
▁measures	-14550
▁military	-14551
▁obligaci	-14552
▁persever	-14553
▁republic	-14554
▁rodillas	-14555
▁separado	-14556
▁sucedido	-14557
▁sweating	-14558
▁trabajas	-14559
▁training	-14560
▁weakness	-14561
▁Elizabeth	-14562
▁Wikipedia	-14563
▁announced	-14564
▁apropiado	-14565
▁argumento	-14566
▁arguments	-14567
▁chemistry	-14568
▁collapsed	-14569
▁companies	-14570
▁conceited	-14571
▁contenido	-14572
▁diamantes	-14573
▁emociones	-14574
▁encantaba	-14575
▁guarantee	-14576
▁industria	-14577
▁objective	-14578
▁objetivos	-14579
▁paintings	-14580
▁unhealthy	-14581
▁volunteer	-14582
▁activities	-14583
▁celebrated	-14584
▁encontraba	-14585
▁entenderlo	-14586
▁habitantes	-14587
▁misleading	-14588
▁recomendar	-14589
▁regardless	-14590
▁remarkable	-14591
▁terremotos	-14592
▁travelling	-14593
▁accommodate	-14594
▁accumulated	-14595
▁adolescente	-14596
▁alojamiento	-14597
▁decepcionar	-14598
▁equivocados	-14599
▁instrumento	-14600
▁performance	-14601
▁philosopher	-14602
▁sentimiento	-14603
▁separatists	-14604
▁stomachache	-14605
▁videojuegos	-14606
▁adolescentes	-14607
▁dictionaries	-14608
▁organization	-14609
▁particularly	-14610
▁principiante	-14611
▁pronunciation	-14612
BC	-14613
Ba	-14614
Di	-14615
Mr	-14616
ni	-14617
yz	-14618
Sos	-14619
enn	-14620
her	-14621
pic	-14622
rib	-14623
ril	-14624
sop	-14625
▁6.	-14626
▁7.	-14627
▁Ev	-14628
▁ID	-14629
▁Ly	-14630
Apar	-14631
Cree	-14632
Many	-14633
adre	-14634
asha	-14635
back	-14636
bete	-14637
educ	-14638
enes	-14639
etos	-14640
ezed	-14641
four	-14642
goya	-14643
hole	-14644
medo	-14645
mida	-14646
mina	-14647
ords	-14648
pack	-14649
rbit	-14650
rese	-14651
thes	-14652
ulte	-14653
umes	-14654
umpl	-14655
yers	-14656
▁Abs	-14657
▁Ath	-14658
▁Gol	-14659
▁Imp	-14660
▁Mah	-14661
▁Run	-14662
▁Ted	-14663
▁Tem	-14664
▁Ton	-14665
▁Way	-14666
▁cag	-14667
▁dup	-14668
▁ere	-14669
▁jef	-14670
▁mun	-14671
▁rut	-14672
▁unw	-14673
Being	-14674
Saben	-14675
adium	-14676
ampar	-14677
biles	-14678
cases	-14679
chame	-14680
chera	-14681
cules	-14682
ficas	-14683
gling	-14684
ieses	-14685
iriel	-14686
itaci	-14687
omnia	-14688
ongol	-14689
rados	-14690
rgica	-14691
tomos	-14692
urrir	-14693
▁Calm	-14694
▁East	-14695
▁Hope	-14696
▁Paci	-14697
▁Salv	-14698
▁Sign	-14699
▁Sure	-14700
▁Wake	-14701
▁Wall	-14702
▁anch	-14703
▁beef	-14704
▁boil	-14705
▁butt	-14706
▁buys	-14707
▁dude	-14708
▁frag	-14709
▁ging	-14710
▁gras	-14711
▁guns	-14712
▁hind	-14713
▁lang	-14714
▁leas	-14715
▁maid	-14716
▁mile	-14717
▁movi	-14718
▁nido	-14719
▁phen	-14720
▁tono	-14721
▁vert	-14722
▁visi	-14723
Parece	-14724
ciales	-14725
itivos	-14726
urable	-14727
▁Chess	-14728
▁Doesn	-14729
▁Falta	-14730
▁Harry	-14731
▁Unido	-14732
▁afirm	-14733
▁aparc	-14734
▁apost	-14735
▁burns	-14736
▁celos	-14737
▁cesta	-14738
▁chain	-14739
▁chalk	-14740
▁cliff	-14741
▁crudo	-14742
▁dimos	-14743
▁disor	-14744
▁dough	-14745
▁dried	-14746
▁eclip	-14747
▁flota	-14748
▁gallo	-14749
▁greet	-14750
▁horne	-14751
▁hunch	-14752
▁ladra	-14753
▁obsta	-14754
▁porqu	-14755
▁rebel	-14756
▁redes	-14757
▁salta	-14758
▁spade	-14759
▁sueco	-14760
▁tibur	-14761
▁valle	-14762
▁voces	-14763
Whoever	-14764
ensible	-14765
uciones	-14766
▁Alicia	-14767
▁Dinner	-14768
▁Donald	-14769
▁Estado	-14770
▁Llueve	-14771
▁Nagoya	-14772
▁Newton	-14773
▁Prices	-14774
▁Teresa	-14775
▁Vuelvo	-14776
▁aguard	-14777
▁assure	-14778
▁babies	-14779
▁blamed	-14780
▁burden	-14781
▁buscas	-14782
▁celosa	-14783
▁centim	-14784
▁chased	-14785
▁cheeks	-14786
▁combat	-14787
▁cometa	-14788
▁corres	-14789
▁crimes	-14790
▁docena	-14791
▁entres	-14792
▁faults	-14793
▁fellow	-14794
▁fertil	-14795
▁garaje	-14796
▁gloria	-14797
▁headed	-14798
▁idiots	-14799
▁indeed	-14800
▁limits	-14801
▁musulm	-14802
▁oculta	-14803
▁pasaje	-14804
▁postal	-14805
▁robots	-14806
▁safely	-14807
▁sosten	-14808
▁superf	-14809
▁surely	-14810
▁tocado	-14811
▁tontos	-14812
▁voices	-14813
▁vulgar	-14814
▁wolves	-14815
Hablando	-14816
Quisiera	-14817
▁Apuesto	-14818
▁Ecuador	-14819
▁Escucha	-14820
▁Florida	-14821
▁Several	-14822
▁Zealand	-14823
▁Zelanda	-14824
▁acuerda	-14825
▁aterriz	-14826
▁colabor	-14827
▁distant	-14828
▁effects	-14829
▁estemos	-14830
▁euskera	-14831
▁ganando	-14832
▁golpear	-14833
▁happily	-14834
▁honeymo	-14835
▁indifer	-14836
▁jogging	-14837
▁lighter	-14838
▁malgast	-14839
▁matarme	-14840
▁mataste	-14841
▁observe	-14842
▁opposed	-14843
▁passage	-14844
▁penalty	-14845
▁privile	-14846
▁recapit	-14847
▁relaxed	-14848
▁shortly	-14849
▁stabbed	-14850
▁stadium	-14851
▁termine	-14852
▁thieves	-14853
▁tomaron	-14854
▁tomarte	-14855
▁trivial	-14856
▁twisted	-14857
▁visitas	-14858
▁Einstein	-14859
▁Vosotras	-14860
▁casillas	-14861
▁claridad	-14862
▁complejo	-14863
▁delicate	-14864
▁destruir	-14865
▁disparar	-14866
▁elegante	-14867
▁emotions	-14868
▁europeos	-14869
▁freezing	-14870
▁includes	-14871
▁knocking	-14872
▁meetings	-14873
▁numerous	-14874
▁obsessed	-14875
▁provocar	-14876
▁punctual	-14877
▁quejarte	-14878
▁reminded	-14879
▁salesman	-14880
▁sentaron	-14881
▁siblings	-14882
▁somewhat	-14883
▁thankful	-14884
▁volviera	-14885
▁youngest	-14886
▁actividad	-14887
▁americana	-14888
▁behaviour	-14889
▁diciembre	-14890
▁mostrarme	-14891
▁necessity	-14892
▁nightmare	-14893
▁personaje	-14894
▁prometido	-14895
▁promotion	-14896
▁recovered	-14897
▁regretted	-14898
▁remembers	-14899
▁respected	-14900
▁similares	-14901
▁suspected	-14902
▁Bienvenido	-14903
▁beneficios	-14904
▁maquillaje	-14905
▁protection	-14906
▁transporte	-14907
▁Mathematics	-14908
▁differently	-14909
▁preguntando	-14910
▁sorprendida	-14911
▁arquitectura	-14912
▁diccionarios	-14913
▁malentendido	-14914
▁sorprendente	-14915
▁principiantes	-14916
%.	-14917
Co	-14918
ku	-14919
oo	-14920
Adi	-14921
Tra	-14922
chy	-14923
hab	-14924
hop	-14925
pin	-14926
try	-14927
▁ko	-14928
▁ou	-14929
Prob	-14930
atra	-14931
bana	-14932
dese	-14933
egos	-14934
enan	-14935
erva	-14936
fire	-14937
gawa	-14938
gido	-14939
iclo	-14940
idar	-14941
igen	-14942
inge	-14943
pone	-14944
rero	-14945
stan	-14946
umer	-14947
vale	-14948
verg	-14949
▁Afr	-14950
▁Ali	-14951
▁Exp	-14952
▁Ira	-14953
▁Kaz	-14954
▁Lib	-14955
▁Olv	-14956
▁Pek	-14957
▁Sir	-14958
▁Sud	-14959
▁Usa	-14960
▁abn	-14961
▁exh	-14962
▁lea	-14963
▁lyr	-14964
▁rew	-14965
▁wra	-14966
activ	-14967
aming	-14968
ardon	-14969
cnica	-14970
crast	-14971
enery	-14972
iffel	-14973
licto	-14974
lveme	-14975
mares	-14976
micas	-14977
tenas	-14978
uncio	-14979
xture	-14980
▁Devu	-14981
▁Grab	-14982
▁Iran	-14983
▁Lord	-14984
▁Noel	-14985
▁Pier	-14986
▁Prom	-14987
▁Taiw	-14988
▁Wars	-14989
▁anot	-14990
▁baut	-14991
▁brus	-14992
▁coal	-14993
▁coro	-14994
▁enca	-14995
▁erup	-14996
▁forz	-14997
▁hipo	-14998
▁hura	-14999
▁leen	-15000
▁nick	-15001
▁pulm	-15002
▁reac	-15003
▁rusa	-15004
▁rust	-15005
▁saxo	-15006
▁slam	-15007
▁wink	-15008
anches	-15009
ardvar	-15010
ionado	-15011
itales	-15012
keeper	-15013
minded	-15014
nament	-15015
piraci	-15016
▁Busqu	-15017
▁Comer	-15018
▁Deben	-15019
▁Helen	-15020
▁Hotel	-15021
▁Jimmy	-15022
▁Luego	-15023
[...]
